'<pad>'
'<EOS>'
', _'
'the_'
'._'
'of_'
'to_'
'_'
'and_'
's_'
'a_'
'in_'
'-_'
'that_'
'is_'
'’_'
'for_'
' – _'
'on_'
'be_'
'The_'
'as_'
'ing_'
'it_'
'are_'
'with_'
'ed_'
'not_'
'by_'
'has_'
'an_'
'have_'
'will_'
'd_'
'its_'
'from_'
'their_'
'more_'
'e_'
'or_'
'was_'
'But_'
'at_'
' “_'
'would_'
'this_'
'y_'
'they_'
'US_'
'which_'
'than_'
'countries_'
't_'
'In_'
'China_'
'but_'
'es_'
'can_'
' (_'
'world_'
'been_'
'economic_'
'all_'
'one_'
'ly_'
'ng_'
'government_'
'n_'
'only_'
'” _'
'new_'
'should_'
'other_'
'global_'
'growth_'
'also_'
'r_'
'Europe_'
'about_'
'his_'
'political_'
'we_'
'no_'
'could_'
'most_'
'who_'
'% _'
'such_'
': _'
'if_'
'country_'
'were_'
'people_'
'now_'
'European_'
'even_'
'so_'
'financial_'
'al_'
'; _'
'years_'
'many_'
'This_'
'time_'
'when_'
'there_'
'policy_'
'economy_'
'some_'
'’ _'
'?_'
'do_'
'yang_'
'must_'
'It_'
'these_'
'into_'
'what_'
'much_'
'may_'
') _'
'out_'
'had_'
'i_'
'l_'
'over_'
'up_'
'er_'
'he_'
'them_'
'long_'
'crisis_'
'power_'
'EU_'
'like_'
'And_'
'I_'
'year_'
'public_'
'two_'
'dan_'
'market_'
'because_'
'United_'
'well_'
'.”_'
'international_'
'A_'
'America_'
'between_'
'less_'
'ion_'
'those_'
'debt_'
'As_'
'while_'
'first_'
'kan_'
'able_'
'ation_'
'. _'
'state_'
'need_'
've_'
'us_'
'any_'
'how_'
'way_'
'Russia_'
'both_'
'system_'
'our_'
'against_'
'term_'
'just_'
'banks_'
'leaders_'
'h_'
'For_'
'm_'
'trade_'
'ers_'
'after_'
'high_'
'k_'
'investment_'
'too_'
'interest_'
'ment_'
'far_'
'become_'
'Japan_'
'o_'
'markets_'
'If_'
'make_'
'example_'
'change_'
'rate_'
'own_'
'national_'
'last_'
'military_'
'support_'
'Indeed_'
'important_'
'where_'
'war_'
'rates_'
'governments_'
'States_'
' $_'
'American_'
'India_'
'President_'
'recent_'
'being_'
'foreign_'
'Chinese_'
'policies_'
'social_'
'real_'
'ce_'
'Iran_'
'still_'
'capital_'
'current_'
'does_'
'today_'
'future_'
'including_'
'same_'
'large_'
'tion_'
'di_'
'through_'
'That_'
'development_'
'nuclear_'
'economies_'
',” _'
'since_'
'use_'
'end_'
'1_'
'g_'
'risk_'
'right_'
'might_'
'led_'
'security_'
'Germany_'
'fiscal_'
'ble_'
'ry_'
')._'
'A'
'likely_'
'prices_'
'rs_'
'ts_'
'ted_'
'GDP_'
'), _'
'take_'
'made_'
'work_'
'st_'
'major_'
'without_'
'income_'
'2_'
'energy_'
'problem_'
'Israel_'
'better_'
'did_'
'low_'
'5_'
'good_'
'billion_'
'under_'
'result_'
'ty_'
'ies_'
'demand_'
'Bank_'
'fact_'
'health_'
'central_'
'cannot_'
'then_'
'states_'
'already_'
'p_'
'down_'
'part_'
'ons_'
'tax_'
'Obama_'
'Asia_'
'often_'
'There_'
'very_'
'course_'
'They_'
'c_'
'So_'
'private_'
'oil_'
'another_'
'help_'
'order_'
'te_'
'le_'
'three_'
'among_'
'institutions_'
'eurozone_'
'We_'
'East_'
'human_'
'region_'
''_'
'monetary_'
'money_'
'sector_'
'before_'
'role_'
'rather_'
'Moreover_'
',_'
'Union_'
'3_'
'past_'
'back_'
'To_'
'least_'
'ally_'
'South_'
'whether_'
'little_'
'World_'
'higher_'
'problems_'
'increase_'
'based_'
'ting_'
'ity_'
'around_'
'untuk_'
'nt_'
'de_'
'million_'
'ous_'
'negara_'
'few_'
'case_'
'needed_'
'democracy_'
'short_'
'companies_'
'Iraq_'
'E'
'spending_'
'especially_'
'process_'
'ive_'
'inflation_'
'developing_'
'needs_'
'price_'
'next_'
'France_'
'rise_'
'clear_'
'reform_'
'ic_'
'approach_'
'emerging_'
'nya_'
'remains_'
'7_'
'O'
'called_'
'domestic_'
'why_'
'labor_'
'ties_'
'point_'
'toward_'
'free_'
'At_'
'means_'
'strong_'
'come_'
'When_'
'West_'
'longer_'
'With_'
'currency_'
'off_'
'century_'
'decades_'
'during_'
'different_'
'4_'
'reforms_'
'however_'
'ors_'
'others_'
'growing_'
'education_'
'I'
'rights_'
'climate_'
'election_'
'further_'
'ya_'
'Korea_'
'almost_'
'20_'
'costs_'
'remain_'
'you_'
'citizens_'
'best_'
'peace_'
'women_'
'given_'
'bank_'
'Greece_'
'her_'
'continue_'
'level_'
'members_'
'ini_'
'cost_'
'ago_'
'One_'
'Africa_'
'within_'
'Arab_'
'difficult_'
'G'
'seems_'
'business_'
'efforts_'
'making_'
'key_'
'exchange_'
'increasingly_'
'non_'
'8_'
'control_'
'poor_'
'ness_'
'regional_'
'question_'
'itself_'
'000_'
'akan_'
'yet_'
'put_'
'red_'
'place_'
'regime_'
'used_'
'potential_'
'particularly_'
'go_'
'provide_'
'law_'
'benefits_'
'Turkey_'
'per_'
'never_'
'greater_'
'Middle_'
'North_'
'though_'
'life_'
'interests_'
'enough_'
'terms_'
'population_'
'Western_'
'politics_'
'u_'
'services_'
'What_'
'6_'
'While_'
'force_'
'set_'
'recently_'
'agreement_'
'left_'
'resources_'
'ent_'
'thus_'
'War_'
'face_'
'value_'
'number_'
'democratic_'
'After_'
'P'
'Yet_'
'second_'
'each_'
'2008_'
'Syria_'
'run_'
'small_'
'These_'
'view_'
'society_'
'R'
'workers_'
'say_'
'euro_'
'care_'
'By_'
'T'
'share_'
'children_'
'se_'
'possible_'
'former_'
'S'
'U'
'ever_'
'stability_'
'every_'
'sm_'
'old_'
'history_'
'forces_'
'conflict_'
'si'
'reason_'
'member_'
'lower_'
'issues_'
'impact_'
'want_'
'reduce_'
'common_'
'strategy_'
'risks_'
'effective_'
'hard_'
'ions_'
'dari_'
'sense_'
'great_'
'rising_'
'ance_'
'local_'
'lead_'
'ism_'
'nce_'
'th_'
'half_'
'him_'
'ds_'
're_'
'once_'
'again_'
'themselves_'
'C'
'Bush_'
'get_'
'On_'
'up'
'action_'
'credit_'
'ns_'
'M'
' '
'si_'
'man_'
'ings_'
'Even_'
'progress_'
'know_'
'serious_'
'day_'
'dengan_'
'anti_'
'leadership_'
'times_'
'see_'
'challenges_'
'Minister_'
'ding_'
'French_'
'program_'
'investors_'
'believe_'
'create_'
'Putin_'
'New_'
'ments_'
'president_'
'inter'
'age_'
'unemployment_'
'Le'
'in'
'party_'
'balance_'
'my_'
'jobs_'
'early_'
'finance_'
'9_'
'issue_'
'decision_'
'fall_'
'lo'
'dollar_'
'British_'
'IMF_'
'Ukraine_'
'K'
'Sa'
'significant_'
'rules_'
'community_'
'together_'
'research_'
'access_'
'Russian_'
'find_'
'account_'
', “_'
'simply_'
'home_'
'е'
'rule_'
'self_'
'levels_'
'infrastructure_'
'Trump_'
'tidak_'
'employment_'
'zed_'
'administration_'
'Of_'
'turn_'
'Ta'
'men_'
'measures_'
'cy_'
'challenge_'
'ro'
'pay_'
'deal_'
'ru'
'gas_'
'data_'
'50_'
'German_'
'ations_'
'International_'
'Britain_'
'always_'
'Pakistan_'
'ja'
'pre'
'five_'
'ability_'
'ze_'
'UN_'
'Some_'
'full_'
'true_'
'ensure_'
'3'
'parties_'
'technology_'
'sts_'
'is'
'en_'
'ying_'
'open_'
'increased_'
'Party_'
'systems_'
'ling_'
'developed_'
'B'
'across_'
'poverty_'
'decade_'
'threat_'
'information_'
'um_'
'seem_'
'land_'
'ate_'
'success_'
'leading_'
'despite_'
'budget_'
'big_'
'Do'
'advanced_'
'model_'
'ful_'
'Central_'
'0_'
'lack_'
'similar_'
'pada_'
'me_'
'conditions_'
'Fed_'
'Americans_'
'largest_'
'address_'
'ne_'
'He_'
'officials_'
'response_'
'require_'
'opportunity_'
'ways_'
'th'
'whose_'
'C_'
'return_'
'Council_'
'consumption_'
'groups_'
'ian_'
'hope_'
'ces_'
'ls_'
'weapons_'
'ni'
'Japanese_'
'politicians_'
'move_'
'ary_'
'said_'
'banking_'
'ha'
'sa'
'consequences_'
'lly_'
'done_'
'firms_'
'dalam_'
'ar_'
'sta'
'third_'
'ring_'
'ia_'
'Palestinian_'
'to'
'pressure_'
'deficit_'
'requires_'
'ge_'
'form_'
'tic_'
'assets_'
'du'
'areas_'
'rich_'
'mis'
'10_'
'position_'
'Prime_'
'Li'
'Asian_'
'start_'
'side_'
'post_'
'food_'
'am_'
'effort_'
'until_'
'strategic_'
'top_'
'relations_'
'30_'
'failed_'
'coming_'
'production_'
'supply_'
'ECB_'
'w_'
'hi'
'Egypt_'
'ver_'
'ka'
'structural_'
'influence_'
'opposition_'
'ss_'
'mon'
'taken_'
'several_'
'cooperation_'
'single_'
'UK_'
'cause_'
'ne'
'Ne'
'civil_'
'taking_'
'main_'
'Many_'
'largely_'
'created_'
'G_'
'violence_'
'act_'
'productivity_'
'months_'
'debate_'
'Fund_'
'tu'
'campaign_'
'rest_'
'li'
'working_'
'cally_'
'Islamic_'
'La'
'x_'
'aid_'
'changes_'
'focus_'
'Such_'
'effects_'
'powerful_'
'wa'
'per'
'no'
'Afghanistan_'
'perhaps_'
'young_'
'wealth_'
'sho'
'“_'
'group_'
'fa'
'leader_'
'ves_'
'est_'
'mo'
'majority_'
'Today_'
'goods_'
'away_'
'N'
'line_'
'Ro'
'water_'
'policymakers_'
'capacity_'
'D'
'massive_'
'tra'
'failure_'
'do'
'scale_'
'necessary_'
'beyond_'
'P_'
'four_'
'bonds_'
'prevent_'
'les_'
'Ha'
'ter_'
'ar'
'makes_'
'De'
'voters_'
'think_'
'bad_'
'alone_'
'da'
'а'
'funds_'
'average_'
'modern_'
'Given_'
'ma_'
'elections_'
'she_'
'period_'
'el_'
'idea_'
'go'
'gi'
'b_'
'lost_'
'late_'
'et_'
'bring_'
'ated_'
'under'
'decline_'
'benefit_'
'Italy_'
'negotiations_'
'increasing_'
'fear_'
'play_'
'ant_'
'having_'
'ure_'
'Di'
'Pro'
'began_'
'official_'
'job_'
'natural_'
'Muslim_'
'seen_'
'programs_'
'lebih_'
'exports_'
'found_'
'Brazil_'
'se'
'at'
'ы'
'sti'
'annual_'
'н_'
'recovery_'
'sure_'
'Nations_'
'give_'
'che'
'particular_'
'close_'
'bri'
'Israeli_'
'р'
'Soviet_'
'solution_'
'lives_'
'shift_'
'tahun_'
'fully_'
' _'
'union_'
'2010_'
'expected_'
'governance_'
'y'
'ning_'
'later_'
'economists_'
'achieve_'
'u'
'authorities_'
'Mo'
'Instead_'
'ans_'
'Saudi_'
'doing_'
'became_'
'hold_'
'look_'
'ist_'
'gar'
'cal_'
'ving_'
'thing_'
'Pa'
'owing_'
'keep_'
'agenda_'
'using_'
'corruption_'
'limited_'
'effect_'
'media_'
'ial_'
'To'
'ki'
'huge_'
'globalization_'
'either_'
'ju'
'ua'
'plan_'
'ina'
'something_'
'really_'
'ho'
'comes_'
'pro'
'powers_'
'ch_'
'Ra'
'industry_'
'allow_'
'sustainable_'
'ping_'
've'
'presidential_'
'nothing_'
'kind_'
'things_'
'emissions_'
'situation_'
'experience_'
'out'
'le'
'legal_'
'environment_'
';_'
'taxes_'
'on'
'held_'
'First_'
'Commission_'
'evidence_'
'State_'
'fundamental_'
'15_'
'%._'
'te'
'integration_'
'highly_'
'values_'
'contrast_'
'war'
'living_'
'known_'
'More_'
'status_'
'F'
'ine'
'probably_'
'vote_'
'ten_'
'pi'
'build_'
'nearly_'
'ga_'
'recession_'
'over'
'L'
'total_'
'defense_'
'month_'
'ck_'
'ke_'
'improve_'
'All_'
'innovation_'
'behind_'
'ded_'
'middle_'
'ber'
'Security_'
'Bo'
'sh_'
'rea'
'iti'
'collapse_'
'rapid_'
'popular_'
'ca'
'avoid_'
'Now_'
'step_'
'or'
'Ka'
'ah_'
'inequality_'
'following_'
'ing'
'cut_'
'era_'
'/_'
'matter_'
'ght_'
'confidence_'
'vo'
'el'
'reality_'
'indeed_'
'cases_'
'м'
'1'
'worse_'
'live_'
'hu'
'ti'
'da_'
'ized_'
'cur'
'so'
'opportunities_'
'2'
'та'
'n'
'hand_'
'carbon_'
'Te'
'2009_'
'took_'
'al'
'successful_'
'4'
'traditional_'
'wrong_'
'gan_'
'oc'
'Kingdom_'
'Congress_'
'Bu'
'class_'
'tes_'
'il_'
'outcome_'
'len'
'individual_'
'deficits_'
'Mar'
'ya'
'menga'
'larger_'
'pan'
'т'
'stock_'
'NATO_'
'call_'
'freedom_'
'building_'
'ra'
'ku'
'T_'
'ta'
'We'
'қа'
'reach_'
'attention_'
'asset_'
'Greek_'
'protect_'
'days_'
'S_'
'religious_'
'competition_'
'gra'
'news_'
'Se'
'40_'
'minister_'
'Latin_'
'ci'
'Po'
'understand_'
'relatively_'
'ed'
'here_'
'concerns_'
'dia'
'movement_'
'goal_'
'Ga'
'Europeans_'
'wing_'
'report_'
'king_'
'Lo'
'air_'
'ps_'
'er'
'behavior_'
'ke'
'ization_'
'6'
'mean_'
'lu'
'investments_'
'the'
'f_'
'border_'
'actually_'
'standards_'
're'
'w'
'ur'
'responsibility_'
'intervention_'
'boost_'
'Ma'
'25_'
'ee'
'ta_'
'quickly_'
'decisions_'
'1990_'
'dis'
'cities_'
'results_'
'established_'
'direct_'
'NEW_'
'Barack_'
'words_'
'soon_'
'environmental_'
'export_'
'came_'
'Spain_'
'un'
'include_'
'ence_'
'bi'
'Ja'
'и'
'unlikely_'
'roughly_'
'ali'
'W'
'reducing_'
'her'
'weak_'
'financing_'
'certainly_'
'%, _'
'po'
'caused_'
'relationship_'
'eg'
'produce_'
'near_'
'attacks_'
'ely_'
'forward_'
'corporate_'
'ari'
'5'
'з'
'reserves_'
'ging_'
'easy_'
'commitment_'
'2011_'
'II_'
'ul'
'trillion_'
'austerity_'
'Ke'
'No_'
'” – _'
'stop_'
'man'
'Most_'
'2012_'
'160_'
'sovereign_'
'along_'
'у'
'wi'
'zation_'
't'
'Great_'
'meeting_'
'external_'
'becoming_'
'ned_'
'nation_'
'ged_'
'ren'
'bu'
'bar'
'Mexico_'
'beginning_'
'rt'
'meet_'
'stre'
'quality_'
'offer_'
'elsewhere_'
'deep_'
'ct_'
'clearly_'
'critical_'
'Ho'
'sion_'
'he'
'general_'
'creating_'
'tri'
'ship_'
'accept_'
'show_'
'ical_'
'ai'
'ably_'
'net_'
'develop_'
'an'
'moral_'
'о'
'reasons_'
'prime_'
'Mu'
'cu'
'performance_'
'National_'
'industrial_'
'path_'
'me'
'100_'
'above_'
'Since_'
'Internet_'
'worldwide_'
'ult'
'na'
'p'
'flows_'
'brought_'
'lau'
'dangerous_'
'everyone_'
'target_'
'relative_'
'outside_'
'En'
'2015_'
'products_'
'don_'
'currently_'
'Al'
'pu'
'nd_'
'Although_'
'tions_'
'og'
'negative_'
'ang_'
'allowed_'
'recognize_'
'fight_'
'According_'
'mereka_'
'insurance_'
'bor'
'basic_'
'Monetary_'
'African_'
'maintain_'
'Na'
'Hamas_'
'll_'
'op'
'h'
'con'
'claim_'
'certain_'
'la'
'Re'
'lines_'
'ks_'
'body_'
'ga'
'entire_'
'be'
'Development_'
'won_'
'stimulus_'
's'
'basis_'
'alternative_'
' - _'
'л'
'raise_'
'output_'
'crises_'
'cuts_'
'Ba'
'fe'
'family_'
'creation_'
'continued_'
'complex_'
'8'
'pp'
'D_'
'choice_'
'sanctions_'
'sto'
'independence_'
'forced_'
'death_'
'Hu'
'essential_'
'cs_'
'als_'
'victory_'
'thereby_'
'management_'
'co_'
'Da'
'2013_'
'199'
'positive_'
'millions_'
'generation_'
'terrorism_'
'sin'
'helped_'
'city_'
'required_'
'ied_'
'tersebut_'
'ie'
'ib'
'allies_'
'No'
'ы_'
'provided_'
'Global_'
'са'
'mar'
'har'
'savings_'
'der'
'September_'
'0'
'technologies_'
'su'
'revolution_'
'consider_'
'7'
'organizations_'
'car'
'proposed_'
'lt'
'ia'
'attack_'
'Indian_'
'B_'
'center_'
'Second_'
'refugees_'
'factors_'
'existing_'
'book_'
'tro'
'bas'
'ory_'
'н'
'prosperity_'
'knowledge_'
'source_'
'ea'
'tan_'
'2007_'
'п'
'vely_'
'ists_'
'ig'
'size_'
'six_'
'liberal_'
'concern_'
'Meanwhile_'
'Federal_'
'ma'
'una'
'un_'
'son_'
'sing_'
'framework_'
'bat'
'independent_'
'below_'
'How_'
'service_'
'ously_'
'elected_'
'internal_'
'ch'
'projects_'
': “_'
'company_'
'ating_'
'answer_'
'leave_'
'ko'
'2014_'
'ке'
'zing_'
'economics_'
'Per'
'Islam_'
'ә'
'set'
'rapidly_'
'ium_'
'gri'
'agreed_'
'ad'
'Me'
'kon'
'aimed_'
'according_'
'continues_'
'і'
'societies_'
'disease_'
'Arabia_'
'п_'
'argue_'
'gain_'
'willing_'
'let_'
'instead_'
'available_'
'Ar'
'talks_'
'science_'
'saving_'
'nor_'
'bisa_'
'appears_'
'additional_'
'simple_'
'pay'
'amount_'
'Unfortunately_'
'ked_'
'cing_'
'nts_'
'ab'
'Mi'
'households_'
'asi_'
'E_'
'ү'
'stri'
'co'
'ter'
'eventually_'
'diplomatic_'
'advantage_'
'ri'
'personal_'
'Economic_'
'An_'
'ms_'
'businesses_'
'Co'
'thinking_'
'damage_'
'ng'
'ld'
'trans'
'loss_'
'effectively_'
'Palestinians_'
'tly_'
'sel'
'regulation_'
'office_'
'individuals_'
'questions_'
'borders_'
'stable_'
'record_'
'dro'
'ap'
'facing_'
'can'
'ically_'
'tive_'
'funding_'
'est'
'ents_'
'claims_'
'Fi'
'loans_'
'gh'
'eo'
'burden_'
'60_'
'ir'
'increases_'
'harus_'
'ck'
'sides_'
'V'
'incentives_'
'za'
'fore'
'cli'
'housing_'
'authority_'
'thought_'
'terrorist_'
'reduced_'
'project_'
'Finally_'
'sed_'
'app'
'”'
'protection_'
'neighbors_'
'ht'
'equity_'
'9'
'turned_'
'liquidity_'
'lin'
'ka_'
'follow_'
'as'
'Secretary_'
'od'
'drug_'
'culture_'
'competitive_'
'area_'
'Fo'
'с'
'ra_'
'impossible_'
'bahwa_'
'Republican_'
'whole_'
'reduction_'
'besar_'
'dig'
'ahead_'
'Fa'
'widely_'
'vision_'
'institutional_'
'crucial_'
'bio'
'ur_'
'unit'
'pres'
'obvious_'
'Lebanon_'
'wide_'
'wages_'
'followed_'
'activities_'
'Man'
'Clinton_'
'transition_'
'providing_'
'na_'
'Assad_'
'ret'
'flo'
'cru'
'bility_'
'Pri'
'ug'
'ses_'
'fail_'
'fuel_'
'expect_'
'am'
'ak_'
'try_'
'gains_'
'cultural_'
'understanding_'
'trust_'
'grow_'
'driven_'
'zi'
'throughout_'
'related_'
'qui'
'emp'
'seek_'
'ol'
'nature_'
'matters_'
'lea'
'fo'
'directly_'
'anti'
'Sch'
'197'
'zero_'
'slow_'
'rd'
'pa'
'Car'
'technological_'
'politically_'
'Likewise_'
'11_'
'б'
'losses_'
'ideas_'
'feel_'
'e'
'ction_'
'Despite_'
'xi'
'wage_'
'overall_'
'moment_'
'ria'
'era'
'Vi'
'General_'
'z_'
'seeking_'
'й'
'hor'
'gap_'
'consensus_'
'O_'
'm'
'industries_'
'indi'
'events_'
'Reserve_'
'stronger_'
'reached_'
'ot'
'exc'
'trying_'
'plu'
'begin_'
'Ad'
'&_'
'seemed_'
'going_'
'fi'
'af'
'adalah_'
'ал'
'renminbi_'
'regions_'
'paid_'
'game_'
'ultimately_'
'suggests_'
'sectors_'
'respect_'
'ility_'
'dollars_'
'chance_'
'standing_'
'rein'
'nbsp_'
'establish_'
'uni'
'responsible_'
'previous_'
'mas'
'disp'
'People_'
'points_'
'mat'
'apa'
'Be'
'significantly_'
'tur'
'rec'
'expansion_'
'Syrian_'
'shared_'
'legitimacy_'
'Only_'
'wants_'
'pri'
'ay_'
'win_'
'tor'
'min'
'mass_'
'atau_'
'ele'
'difference_'
'consumer_'
'(_'
'om'
'g'
'emi'
'parts_'
'Chi'
'spe'
'lending_'
'core_'
'Thus_'
'M_'
'solutions_'
'school_'
'iz'
'gene'
'Pen'
'property_'
'ten'
'sub'
'excessive_'
'cha'
'a'
'Si'
'ме'
'ground_'
'goals_'
'shi'
'actions_'
'да'
'sometimes_'
'kita_'
'bo'
'bly_'
'bel'
'partners_'
'ola'
'ade'
'YORK_'
'pat'
'mu'
'ici'
'c'
'easily_'
'bilateral_'
'Though_'
'і_'
'summit_'
'historical_'
'bomb'
'Ge'
'sur'
'shed_'
'en'
'contrary_'
'ila'
'ар'
'oleh_'
'extreme_'
'demands_'
'dd'
'agreements_'
'steps_'
'r'
'mb'
'manufacturing_'
'dunia_'
'count'
'committed_'
'welfare_'
'nk'
'extent_'
'agree_'
'fair_'
'competitiveness_'
'argued_'
'soft_'
'ras'
'argument_'
'Ki'
'From_'
'vital_'
'ncy_'
'mini'
'assistance_'
'So'
'ward_'
'neither_'
'ges_'
'child_'
'nu'
'Iranian_'
'save_'
'federal_'
'direction_'
'George_'
'importance_'
'back'
'Un'
'v'
'head_'
'forms_'
'falling_'
'consumers_'
'buy_'
'Ko'
'vast_'
'treatment_'
'stu'
'reflects_'
'primary_'
'para'
'gl'
'November_'
'your_'
'tain'
'strengthen_'
'nti'
'ic'
'cap'
'ba'
'Similarly_'
'study_'
'skills_'
'oni'
'creditors_'
'ati'
'stand_'
'sh'
'pro_'
'ok'
'id_'
'han_'
'free'
'ble'
'Ni'
'tan'
'normal_'
'lies_'
'anything_'
'Why_'
'us'
'de'
'break_'
'sse'
'dapat_'
'Tha'
'Hi'
'12_'
'ste'
'ious_'
'ce'
'2000_'
'де'
'tera'
'ora'
'ket'
'au'
'For'
'anc'
'Trade_'
'Euro'
'surplus_'
'merely_'
'for'
'1980_'
'ра'
'wo'
'super'
'sil'
'scientific_'
'prospects_'
'principle_'
'ert'
'ect'
'b'
'R_'
'wars_'
'rid'
'faces_'
'Not_'
'Gaza_'
'Abe_'
'substantial_'
'pre_'
'plans_'
'ens'
'warming_'
'membership_'
'focused_'
'Or'
'Ab'
'ort'
'bet'
'l'
'ine_'
'immediate_'
'eu'
'produced_'
'ess_'
'asi'
'regard_'
'eri'
'жа'
'sma'
'encourage_'
'2001_'
'#_'
'yi'
'unt'
'takes_'
'ros'
'provides_'
'Its_'
'IC'
'Brexit_'
'shows_'
'san'
'regulatory_'
'expectations_'
'due_'
'changed_'
'Libya_'
'Cold_'
'standard_'
'va'
'principles_'
'ple'
'partly_'
'limits_'
'boom_'
'ast'
'F_'
'referendum_'
'promote_'
'implement_'
'bagi_'
'Perhaps_'
'pes'
'enable_'
'Fe'
'Bi'
'earlier_'
'dep'
'communities_'
'ст'
'ма'
'therefore_'
'pursue_'
'vulnerable_'
'serve_'
'cy'
'char'
'2005_'
'space_'
'nd'
'fighting_'
'Su'
'Korean_'
'uncertainty_'
'star'
'jo'
'fast_'
'те'
'story_'
'short'
'reflect_'
'lose_'
'ingly_'
'bit'
'adopted_'
'December_'
'pla'
'easing_'
'cal'
'built_'
'safety_'
'option_'
'kin'
'ip'
'ima'
'diss'
'ana'
'ise_'
'efficient_'
'di'
'coalition_'
'baru_'
'W_'
'194'
'je'
'isi'
'finally_'
'ban'
'Both_'
'tru'
'ming_'
'else_'
'vent'
'unable_'
'safe_'
'bia'
'ize_'
'ei'
'196'
'test_'
'students_'
'push_'
'oo'
'ker'
'went_'
'subsidies_'
'sources_'
'il'
'faster_'
'announced_'
'Os'
'His_'
'H'
'special_'
'ric'
'int'
'ible_'
'becomes_'
'various_'
'secure_'
'oti'
'juga_'
'doubt_'
'Treaty_'
'Al_'
'whom_'
'v_'
'trading_'
'spread_'
'police_'
'Paris_'
'que'
'bers'
'sha'
'don'
'calls_'
'abroad_'
'theory_'
'ssion_'
'models_'
'eli'
'disc'
'army_'
'thousands_'
'round_'
'rat'
'memper'
'invest_'
'Sunni_'
'hi_'
'worth_'
'swa'
'suggest_'
'managed_'
'exa'
'appear_'
'қ'
'ut_'
'quarter_'
'it'
'favor_'
'London_'
'Cha'
'une'
'struggle_'
'structure_'
'o'
'drugs_'
'ven'
'range_'
'broad_'
'Wi'
'mil'
'ec'
'compared_'
'sovereignty_'
'ona'
'macroeconomic_'
'commercial_'
'achieved_'
'secara_'
'dec'
'York_'
'Am'
'severe_'
'od_'
'front_'
'enormous_'
'differences_'
'den'
'candidates_'
'biggest_'
'" _'
'spend_'
'manage_'
'happen_'
'commodity_'
'Pacific_'
'J'
'ss'
'cul'
'air'
'ер'
'list_'
'kan'
'dim'
'circumstances_'
'ani'
'Muslims_'
'supported_'
'reaching_'
'mor'
'ji'
'ite'
'dre'
'uc'
'trend_'
'rge'
'port'
'ngs_'
'latest_'
'killed_'
'ir_'
'ge'
'fund_'
'es'
'Jo'
'70_'
'aga'
'Their_'
'Poland_'
'started_'
'sk'
'resulting_'
'respond_'
'giving_'
'widespread_'
'threats_'
'targets_'
'running_'
'nder'
'dri'
'accounts_'
'ton'
'rest'
'immigration_'
'ger'
'ш'
'specific_'
'raising_'
'lan'
'ita'
'hel'
'dit'
'cash_'
'bera'
'armed_'
'qua'
'precisely_'
'ong'
'mi'
'eva'
'к'
'nta'
'lam'
'himself_'
'ex'
'ep'
'av'
'ane'
'Ri'
'und'
'shown_'
'causes_'
'Fu'
'tia'
'rn'
'ready_'
'hr'
'hal_'
'Argentina_'
' €_'
'truth_'
'pemb'
'nda'
'gs_'
'works_'
'views_'
'treaty_'
'tend_'
'ri_'
'ps'
'ngan_'
'entr'
'enter'
'context_'
'attempt_'
'addition_'
'May_'
'2006_'
'.'
'par'
'ling'
'fit'
'establishment_'
'currencies_'
'rig'
'mostly_'
'incomes_'
'happened_'
'awa'
'ture_'
'spent_'
'productive_'
'menjadi_'
'lot_'
'infl'
'ended_'
'John_'
'Eastern_'
'00_'
'opinion_'
'expe'
'18'
'ton_'
'ori'
'initiative_'
'designed_'
'der_'
'Go'
'worst_'
'week_'
'tried_'
'possibility_'
'pen'
'hit_'
'den_'
'cation_'
'presidency_'
'operations_'
'laws_'
'Wo'
'uk'
'see'
'mpa'
'ла'
'rti'
'promise_'
'launched_'
'justice_'
'ini'
'fat'
'Consider_'
'multilateral_'
'тт'
'um'
'prove_'
'intelligence_'
'household_'
'ghte'
'ethnic_'
'construction_'
'considerable_'
'closer_'
'bur'
'June_'
'speech_'
'reg'
'post'
'permanent_'
'message_'
'dy_'
'ac'
'troops_'
'ssi'
'rupt'
'life'
'ken'
'd'
'asked_'
'St'
'table_'
'seperti_'
'payments_'
'limit_'
'instability_'
'hen'
'ered_'
'dom'
'considered_'
'Ti'
'tools_'
'drive_'
'col'
'bra'
'borrowing_'
'absence_'
'Because_'
'z'
'pace_'
'multi'
'involved_'
'gold_'
'gen'
'factor_'
'ekonomi_'
'democracies_'
'deliver_'
'ті'
'ster'
'schools_'
'san_'
'profits_'
'nds_'
'ft'
'bon'
'ung_'
'rank'
'present_'
'perubahan_'
'met_'
'inc'
'ff_'
'ero'
'activity_'
'Last_'
'- _'
'tun'
'stage_'
'received_'
'bankers_'
'Ben'
'198'
'ре'
'mengu'
'izing_'
'fair'
'equal_'
'default_'
'collective_'
'cer'
'candidate_'
'ang'
'Those_'
'pho'
'nch'
'hundreds_'
'hol'
'aging_'
'Democratic_'
'бол'
'radical_'
'places_'
'os'
'deeply_'
'danger_'
'capita_'
'anyone_'
'usually_'
'tin'
'settle'
'kem'
'dra'
'nations_'
'mal'
'families_'
'arr'
' _'
'subject_'
'ject'
'improved_'
'ena'
'base_'
'DC_'
'д'
'tt'
'medical_'
'ida'
'hand'
'disaster_'
'ami'
'Y'
'worked_'
'room_'
'prec'
'owned_'
'oli'
'mus'
'identity_'
'exp'
'efficiency_'
'changing_'
'ath'
'LONDON_'
'ut'
'unf'
'rect'
'now'
'final_'
'bb'
'Islamist_'
' "_'
'vi'
'task_'
'remained_'
'prevail'
'press_'
'hands_'
'diseases_'
'ұ'
'nc'
'itu_'
'constitution_'
'ual'
'med_'
'leaving_'
'ide_'
'house_'
'depends_'
'Xi_'
'Govern'
'ң_'
'rum'
'rely_'
'promises_'
'ow'
'helping_'
'fell_'
'estimated_'
'cancer_'
'raised_'
'broader_'
'Wa'
'80_'
'xt'
'lag'
'comprehensive_'
'.)_'
'tu_'
'sustained_'
'pped_'
'name_'
'light_'
'everything_'
'Washington_'
'Organization_'
'Is_'
'He'
'Bar'
'training_'
'suffering_'
'revenue_'
'rch'
'imposed_'
'i'
'et'
'controls_'
'bond_'
'Another_'
'swi'
'supposed_'
'succeed_'
'style_'
'capitalism_'
'urban_'
'mid_'
'las'
'impo'
'goes_'
'electoral_'
'choose_'
'allowing_'
'upon_'
'ue'
'smaller_'
'iklim_'
'ians_'
'generally_'
'entirely_'
'conflicts_'
'sought_'
'ree'
'menye'
'emb'
'credibility_'
'Ju'
'peri'
'organization_'
'mir'
'highest_'
'greatest_'
'discover'
'diff'
'depend_'
'bert'
'associated_'
'Ru'
'southern_'
'mi_'
'edi'
'appro'
'House_'
'wor'
'vis'
'vers'
'resistance_'
'ran_'
'mind_'
'conce'
'ben'
'ann'
'During_'
'unprecedented_'
'sn'
'returns_'
'pemerintah_'
'pem'
'mainly_'
'f'
'continent_'
'я'
'road_'
'revenues_'
'recognized_'
'person_'
'learn_'
'declared_'
'counter_'
'ai_'
'Sta'
'Kremlin_'
'ys_'
'var'
'usa'
'migration_'
'contain'
'abs'
'Ireland_'
'tis'
'sufficient_'
'quite_'
'la_'
'exceed'
'elect'
'defi'
'and'
'active_'
'Bel'
'2004_'
'ты'
'ongoing_'
'mema'
'ist'
'getting_'
'faced_'
'economist_'
'cop'
'alliance_'
'July_'
'weeks_'
'unless_'
'tou'
'tensions_'
'ny_'
'mes_'
'heart_'
'ers'
'bli'
'alist'
'ag'
'Revolution_'
'proposal_'
'imports_'
'ute'
'uta'
'pet'
'eth'
'ad_'
'University_'
'In'
'Court_'
'trea'
'rural_'
'nic'
'head'
'disa'
'Ji'
'ө'
'кі'
'rel'
'ref'
'reb'
'populist_'
'men'
'channel'
';&#_'
'moving_'
'mer'
'io'
'ics_'
'hem'
'gan'
'estate_'
'agencies_'
'Str'
'Republic_'
'Lu'
'Financial_'
'ға'
'ry'
'ordinary_'
'implies_'
'arms_'
'violent_'
'viewed_'
'introduc'
'hid'
'Tu'
'Ac'
'zone_'
'ting'
'sla'
'ruling_'
'ent'
'bul'
'watch'
'slowdown_'
'rm'
'lle'
'emerged_'
'ances_'
'aba'
'Rea'
'sharing_'
'regimes_'
'join_'
'ill_'
'gone_'
'fire_'
'backed_'
'Sy'
'she'
'intellectual_'
'diplomacy_'
'continuing_'
'adjustment_'
'Res'
'wan'
'stal'
'sea'
'rt_'
'rhetoric_'
'restore_'
'prov'
'outcomes_'
'colla'
'ala'
'added_'
'ada'
'Pi'
'0s_'
'supporters_'
'sca'
'overcome_'
'judge'
'eb'
'demo'
'deaths_'
'cil'
'belief_'
'January_'
'ub'
'ratio_'
'nn'
'lar'
'ensuring_'
'decided_'
'Du'
'spur'
'pping_'
'participation_'
'my'
'debts_'
'confront'
'coal_'
'afford_'
'Then_'
'ze'
'resolution_'
'regulations_'
'practice_'
'generate_'
'Republicans_'
'Lea'
'told_'
'strength_'
'offered_'
'lesson_'
'keeping_'
'fulfill'
'Shia_'
'193'
'played_'
'liti'
'fra'
'cutting_'
'bid'
'Cu'
'ures_'
'undermine_'
'tar'
'practices_'
'pe'
'non'
'fears_'
'deflation_'
'cross_'
'Tr'
'Merkel_'
'towards_'
'sound_'
'sal'
'our'
'ner_'
'medium_'
'ign'
'identi'
'fer'
'disi'
'conference_'
'ced_'
'Sea_'
'saw_'
'pers'
'migrants_'
'mena'
'Bro'
'ther_'
'sis_'
'positions_'
'like'
'lic'
'gro'
'fic'
'discuss'
'defined_'
'contribute_'
'Palestine_'
'universal_'
'ue_'
'memb'
'list'
'legislation_'
'hkan_'
'Trans'
'N_'
'лы'
'ба'
'type_'
'territory_'
'rent'
'otherwise_'
'imbalances_'
'fan'
'fallen_'
'expand_'
'double_'
'brea'
'aver'
'Over_'
'visit_'
'лд'
'twentieth_'
'rb'
'potentially_'
'ns'
'iri'
'ban_'
'Yu'
'whatever_'
'tam'
'rou'
'geopolitical_'
'explain_'
'dete'
'bil'
'ard'
'appropriate_'
'advocate'
'гі'
'tig'
'tche'
'sen'
'path'
'ksi'
'if'
'degree_'
'conservative_'
'combined_'
'Je'
'CAMBRIDGE_'
'prospect_'
'hun'
'highlight'
'farmers_'
'farm'
'experts_'
'declar'
'colle'
'unre'
'proved_'
'priority_'
'movements_'
'measure_'
'leverage_'
'ional_'
'hma'
'bal'
'affairs_'
'Third_'
'Rep'
'2003_'
'ver'
'uses_'
'tter'
'nan'
'mp'
'inf'
'ft_'
'foot'
'dik'
'ask_'
'advance_'
'Sarkozy_'
'xe'
'wanted_'
'via_'
'terri'
'teri'
'pil'
'peaceful_'
'numbers_'
'lation_'
'implications_'
'conventional_'
'break'
'we'
'uran'
'transformation_'
'sharply_'
'sharp_'
'secular_'
'overt'
'implemented_'
'hardly_'
'Nor_'
'л_'
'via'
'tens'
'tap'
'stands_'
'spo'
'rio'
'ries_'
'receive_'
'pos'
'populations_'
'oth'
'mengha'
'ld_'
'Erdoğan_'
'Communist_'
'uns'
'sign_'
'reinforce'
'kal'
'impa'
'han'
'ew'
'des_'
'deploy'
'cus'
'bes'
'assess'
'Taliban_'
'Rather_'
'ң'
'terhadap_'
'restor'
'ow_'
'mit'
'improving_'
'hard'
'eh'
'easier_'
'cti'
'adjust'
'tom'
'scr'
'ruct'
'mend'
'desire_'
'constitutional_'
'An'
'voi'
'tely_'
'talk_'
'suffer_'
'sted_'
'sc'
'revers'
'resolve_'
'ou'
'ones_'
'lab'
'interna'
'indicate'
'forecast'
'ets_'
'eight_'
'barriers_'
'Hong_'
'wn_'
'sat'
'retr'
'ologi'
'ish_'
'exploit'
'demi'
'cycle_'
'ama'
'Es'
'EL'
'tric'
'overs'
'friend'
'favor'
'cts_'
'agricultural_'
'Ban'
'wel'
'parliament_'
'holding_'
'ght'
'bubble_'
'Turkish_'
'Mor'
'Col'
'é'
'work'
'rap'
'passi'
'options_'
'nge'
'mix'
'lf'
'ko_'
'forcing_'
'fill'
'distribution_'
'determined_'
'blu'
'analysis_'
'Rou'
'Kh'
'Cr'
'лар'
'telah_'
'scientists_'
'protests_'
'ov'
'learned_'
'kt'
'ive'
'gue_'
'cou'
'Kong_'
'200_'
'на'
'senior_'
'mba'
'keb'
'gn'
'gg'
'ema'
'causing_'
'appoint'
'Two_'
'Sen'
'Our_'
'Jewish_'
'victims_'
'trip'
'name'
'machine'
'ide'
'guarantee_'
'enterprises_'
'believed_'
'Taiwan_'
'” (_'
'tors_'
'seriously_'
'satu_'
'onis'
'mp_'
'logi'
'fire'
'dar'
'cons'
'cent'
'ative_'
'aggregate_'
'activ'
'1970_'
'reflected_'
'quantitative_'
'product_'
'gave_'
'elite_'
'combination_'
'cata'
'bed'
'Kin'
'Dis'
'Bal'
'500_'
'pros'
'looking_'
'gu'
'everywhere_'
'diper'
'March_'
'resource_'
'insi'
'enda'
'crimes_'
'authoritarian_'
'admi'
'Vietnam_'
'а_'
'unde'
'seven_'
'mechanisms_'
'ffe'
'Gu'
'ын'
'top'
'ther'
'sustain_'
'sli'
'perceived_'
'ped_'
'patients_'
'ons'
'oi'
'liberalization_'
'includes_'
'hir'
'hed_'
'fli'
'diminish'
'chi'
'although_'
'CC'
'90_'
')'
'swe'
'stic_'
'overl'
'order'
'ministers_'
'ively_'
'dev'
'ain'
'underlying_'
'subs'
'soci'
'preci'
'poorest_'
'occurred_'
'kes'
'estimates_'
'aya'
'ants_'
'Ser'
'suit'
'ress'
'pt'
'phi'
'parti'
'lla'
'iso'
'impose_'
'hy'
'experiment'
'ensu'
'blame_'
'Ca'
'Bre'
'hat'
'experienced_'
'exit_'
'defeat_'
'cat'
'bound_'
'aim_'
'Will_'
'Kim_'
'virtually_'
'vie'
'uti'
'tim'
'prob'
'outs'
'objective_'
'net'
'inevitable_'
'dependent_'
'bea'
'assi'
'studies_'
'sit'
'regulators_'
'profit_'
'planet_'
'percentage_'
'hin'
'esi'
'engage_'
'command'
'amounts_'
'abo'
'CO2_'
'45_'
'truly_'
'opening_'
'nam'
'murder'
'language_'
'expensive_'
'enti'
'driving_'
'blo'
'Inter'
'Green'
'x'
'whereas_'
'sche'
'pur'
'presence_'
'minority_'
'dle'
'adv'
'temp'
'playing_'
'onal_'
'nt'
'nationalism_'
'mist'
'immediately_'
'fueled_'
'dist'
'cor'
'Without_'
'worry_'
'stud'
'scenario_'
'resent'
'que_'
'perm'
'objectives_'
'itar'
'immigrants_'
'destruction_'
'aged_'
'affected_'
'actors_'
'Pe'
'Just_'
'Economi'
'typically_'
'tiv'
'restructuring_'
'prot'
'orm'
'ole'
'leg'
'hopes_'
'flow_'
'developments_'
'cke'
'Ya'
'Indonesia_'
'Har'
'Af'
'ssa'
'opt'
'nis_'
'irre'
'initiatives_'
'ime'
'generations_'
'gam'
'excess_'
'decide_'
'Australia_'
'strategies_'
'scen'
'opponents_'
'lve'
'legislat'
'ese_'
'earth'
'detail'
'constrain'
'concerned_'
'carry_'
'atives_'
'ara'
'accepted_'
'Parliament_'
'Ir'
'18_'
'ws_'
'vin'
'suk'
'lift'
'kel'
'field_'
'cted_'
'affect_'
'willingness_'
'veri'
'kom'
'inten'
'deepen'
'credible_'
'compl'
'Qaeda_'
'се'
'usi'
'tas'
'physical_'
'persist'
'orang_'
'leads_'
'emphasize'
'dan'
'Op'
'wise_'
'urn'
'ud'
'trade'
'tempt'
'tab'
'stabiliz'
'resu'
'pend'
'omi'
'offers_'
'kn'
'intention'
'gun'
'green_'
'choices_'
'bah'
'October_'
'Ex'
'sell_'
'poll'
'mother'
'maintaining_'
'grand'
'elites_'
'electricity_'
'court_'
'17_'
'ры'
'uat'
'supervis'
'sem'
'reali'
'ration_'
'monitor'
'mine'
'grown_'
'commitments_'
'aut'
'Other_'
'Cont'
'ula'
'tang'
'shape_'
'promoting_'
'prepared_'
'por'
'fla'
'dynamic_'
'dea'
'boo'
'Ten'
'Democrats_'
'20'
'upaya_'
'unp'
'train'
'premi'
'one'
'mbi'
'heavily_'
'del'
'conta'
'compromise_'
'Cons'
'At'
'wer'
'rin'
'relief_'
'networks_'
'heavy_'
'extra'
'essi'
'equivalent_'
'equi'
'ders_'
'arch'
'Ve'
'Treasury_'
'twenty_'
'skeptic'
'proc'
'players_'
'mechanism_'
'lessons_'
'lang'
'ior'
'iden'
'equally_'
'digital_'
'check'
'bringing_'
'ant'
'symbol'
'religion_'
'rage'
'play'
'northern_'
'looks_'
'kerja_'
'kema'
'hours_'
'fish'
'fied_'
'civilian_'
'ada_'
'нд'
'weight_'
'unlike_'
'tie'
'territorial_'
'supporting_'
'run'
'perspective_'
'peng'
'paying_'
'pattern_'
'event_'
'ef'
'divided_'
'determine_'
'deeper_'
'born_'
'Ste'
'NG'
'Ag'
'ul_'
'terrorists_'
'stee'
'some'
'represents_'
'perform'
'operat'
'mistake_'
'legitimate_'
'land'
'impe'
'gger'
'figure_'
'disast'
'declining_'
'conven'
'Venezuela_'
'Em'
'As'
'же'
'revi'
'pun'
'mag'
'fu'
'diagnos'
'described_'
'comm'
'understood_'
'settlement_'
'sed'
'remov'
'proposals_'
'polit'
'permit'
'menu'
'ict'
'elle'
'drop_'
'died_'
'controlled_'
'bail'
'ASEAN_'
'valu'
'useful_'
'turning_'
'sus'
'strengthening_'
'starting_'
'promised_'
'occur_'
'neg'
'knows_'
'imper'
'dal'
'boa'
'Depression_'
'й_'
'wea'
'ups'
'temporary_'
'solve_'
'nationalist_'
'ffer'
'discussion_'
'clos'
'class'
'Wh'
'ка'
'writ'
'summer_'
'parliamentary_'
'minated_'
'ivi'
'expos'
'ees_'
'dise'
'deci'
'broad'
'Vladimir_'
'riche'
'reta'
'iona'
'illus'
'bottom_'
'trends_'
'tic'
'restrict'
'rele'
'rang_'
'ham'
'friends_'
'distan'
'demonstrated_'
'bus'
'apparent_'
'ambi'
'ages_'
'acce'
'However_'
'August_'
'April_'
'trouble_'
'technical_'
'tail'
'stem_'
'stead'
'sebagai_'
'ral_'
'possibly_'
'heat'
'flu'
'ept'
'Mari'
'EN'
'Ch'
') – _'
'сі'
'ron'
'observers_'
'ntly_'
'marginal'
'kebijakan_'
'jar'
'ern_'
'economically_'
'credit'
'ational_'
'assa'
'Pu'
'str'
'sent'
'mass'
'lay'
'jumlah_'
'histori'
'hanya_'
'fle'
'energi_'
'cance'
'Hol'
'у_'
'с_'
'requirements_'
'relevant_'
'mene'
'lur'
'ls'
'losing_'
'jang'
'formal_'
'ey_'
'dly_'
'dite'
'counter'
'bac'
'alt'
'ға_'
'team_'
'setting_'
'recommend'
'mari'
'gui'
'eti'
'een'
'discre'
'dge'
'arrangements_'
'alle'
'Pre'
'Gua'
'не'
'win'
'weigh'
'urge'
'surprise_'
'subsidi'
'prom'
'not'
'micro'
'less'
'kep'
'itu'
'flaw'
'deliver'
'cro'
'critics_'
'assume_'
'art_'
'Ass'
'tical'
'sol'
'firm_'
'expanding_'
'eks'
'diver'
'dire'
'Georgia_'
'нда'
'transparency_'
'rop'
'purpose_'
'pension_'
'normal'
'none_'
'institution_'
'inclusive_'
'impl'
'hes'
'forma'
'feed'
'ement_'
'convinc'
'chose'
'bear_'
'addressing_'
'accord'
'PB'
'El'
'ол'
'zo'
'stag'
'rse'
'res_'
'react'
'moderate_'
'meant_'
'mber'
'mam'
'genuine_'
'equality_'
'contribut'
'complete_'
'cab'
'board_'
'behav'
'accept'
'TPP_'
'Gulf_'
'vic'
'refugee_'
'pledge'
'pir'
'kl'
'kat_'
'jan'
'gained_'
'fun'
'dib'
'desperate'
'V_'
'Like_'
'survival_'
'stor'
'solidarity_'
'sec'
'relie'
'necessarily_'
'lev'
'inva'
'ined_'
'extremely_'
'dir'
'design_'
'ches_'
'Or_'
'Labo'
'Iraqi_'
'!'
'ure'
'ser'
'seba'
'reserve_'
'pra'
'mandate_'
'kept_'
'inde'
'inat'
'fur'
'dramatic_'
'corporations_'
'compara'
'capitali'
'ate'
'adopti'
'Sil'
'SA'
'14_'
'шы'
'virtu'
'ses'
'rk'
'recognition_'
'race_'
'pha'
'orat'
'mic'
'fossil_'
'cra'
'cas'
'unsustainable_'
'uld'
'spi'
'scope_'
'represent_'
'rangi'
'owe'
'offs'
'mental_'
'memor'
'mean'
'interest'
'geo'
'exist_'
'downs'
'distort'
'%'
'unifi'
'purchases_'
'protectionis'
'outl'
'linked_'
'impr'
'genetic_'
'dramatically_'
'begun_'
'attitude'
'argu'
'angka'
'13_'
'unity_'
'securities_'
'robust_'
'resist'
'radical'
'pere'
'll'
'fixed_'
'eco'
'contributed_'
'WASHINGTON_'
'BER'
'vil'
'uct'
'structures_'
'stance_'
'poli'
'kar'
'inform'
'imi'
'establishing_'
'defend_'
'criticism_'
'ates_'
'arrest'
'Where'
'Ku'
'Bas'
'weakness_'
'unique_'
'ual_'
'serv'
'rebel'
'plan'
'mate'
'ly'
'follow'
'document'
'closely_'
'bab'
'Here_'
'Cameron_'
'па'
'tactic'
'stagnation_'
'st'
'showed_'
'ran'
'propos'
'judicia'
'issued_'
'incomp'
'exactly_'
'blow'
'block'
'banyak_'
'avoid'
'asa'
'Y_'
'Under_'
'қы'
'да_'
'priorities_'
'pou'
'lock'
'get'
'chief_'
'ber_'
'annually_'
'acte'
'Reg'
'Netanyahu_'
'Inf'
'Beijing_'
'А'
'pursuing_'
'processes_'
'nom'
'mount'
'mid'
'ition_'
'intended_'
'im_'
'ikan_'
'healthy_'
'encouraging_'
'constraints_'
'astr'
'agriculture_'
'adopt_'
'Va'
'Italian_'
'Comm'
'resol'
'regular'
'pene'
'om_'
'nar'
'ki_'
'gradually_'
'foster'
'deno'
'centuries_'
'Sal'
'Rev'
'Ph'
'ақ'
'á'
'ull'
'transfer_'
'stem'
'project'
'pan_'
'oa'
'mou'
'ignor'
'humanitarian_'
'guid'
'govern'
'fru'
'dip'
'bla'
'Nobel_'
'Eropa_'
'Donald_'
'Chile_'
'CA'
'ution'
'unilateral'
'stake_'
'res'
'nia_'
'ment'
'lli'
'lands'
'ih'
'id'
'glo'
'ger_'
'figures_'
'eas'
'borrow_'
'ator'
'ake'
'Sc'
'е_'
'representati'
'placed_'
'perce'
'pas'
'mana'
'lling_'
'invo'
'gni'
'dialogue_'
'deriv'
'compa'
'camp'
'assumption'
'QE_'
'Char'
'Bl'
'г'
'volatility_'
'trap'
'speculati'
'signs_'
'recogniz'
'punish'
'pera'
'ova'
'ore'
'mpt'
'launch_'
'host_'
'historic_'
'gender_'
'emergence_'
'billions_'
'bahan_'
'Z'
'Bra'
'universities_'
'tit'
'realiz'
'forge'
'ffi'
'employees_'
'edit'
'dent'
'compo'
'cla'
'atas_'
'admit'
'Mil'
'Con'
'Che'
'surely_'
'object'
'lua'
'im'
'gang'
'fuels_'
'elop'
'ek'
'cri'
'ator_'
'aliz'
'Hezbollah_'
'HIV_'
'16_'
'tand'
'sight'
'rain'
'prevent'
'moved_'
'inst'
'ili'
'gas'
'employe'
'ched_'
'campaign'
'addressed_'
'Climate_'
'35_'
'west'
'tent'
'stic'
'rock'
'restrictions_'
'politik_'
'patr'
'oriented_'
'happens_'
'efi'
'dynami'
'din'
'depr'
'concept_'
'battle_'
'alo'
'NC'
'Mc'
'HA'
'Fortunately_'
'кө'
'ды_'
'reme'
'online_'
'mak'
'learning_'
'joint_'
'inci'
'incentive_'
'enta'
'defend'
'IP'
'track_'
'targeted_'
'signed_'
'satisf'
'rying_'
'rting_'
'risky_'
'remarkable_'
'pec'
'ett'
'dor_'
'dominated_'
'dicta'
'crime_'
'constant'
'coh'
'ame'
'Zi'
'Ye'
'ле'
'ан'
'varia'
'unc'
'terror_'
'stake'
'save'
'remaining_'
'ram'
'rac'
'illi'
'forg'
'essentially_'
'esa'
'enforce'
'constitute'
'ana_'
'tough_'
'thi'
'shocks_'
'served_'
'sama_'
'reported_'
'mission_'
'homes_'
'function_'
'fix'
'exi'
'esti'
'comp'
'aggressive_'
'Ref'
'Foreign_'
'tre'
'sumber_'
'squa'
'soar'
'seg'
'sea_'
'rg'
'raci'
'os_'
'hostil'
'hope'
'expert'
'esc'
'ensi'
'ending_'
'ear'
'clu'
'ach'
'Sur'
'Ear'
'pin'
'partner_'
'oun'
'oppo'
'ngi'
'nate'
'makers_'
'eld'
'ef_'
'confirm'
'ars'
'Social_'
'NA'
'Fran'
'Deng'
'он'
'ж'
'wind'
'vict'
'tl'
'rit'
'rep'
'putting_'
'ption'
'opposite_'
'ol_'
'ja_'
'invent'
'imagine_'
'ik_'
'founde'
'ete'
'enc'
'emerge_'
'dependence_'
'clean_'
'adver'
'Nigeria_'
'Nazi'
'Israelis_'
'Ci'
'votes_'
'van'
'urgent_'
'suffered_'
'sis'
'red'
'recon'
'proliferation_'
'profound_'
'pressures_'
'prefer'
'paper_'
'hot'
'fate_'
'explicit'
'edly_'
'degr'
'consideration'
'attend'
'ard_'
'Once_'
'wider_'
'tor_'
'surprising_'
'recip'
'opposed_'
'ool'
'oblig'
'note'
'mela'
'kno'
'ideological_'
'disorder'
'const'
'appreciation_'
'adequate_'
'acy_'
'Wall_'
'Ob'
'Men'
'Indi'
'Committee_'
'ың_'
'мен_'
'visit'
'ular_'
'tradition'
'sor'
'sep'
'sek'
'says_'
'respect'
'rejected_'
'regardless_'
'regarded_'
'published_'
'nineteenth_'
'lou'
'inti'
'inadequate_'
'hood_'
'hing_'
'eat'
'capable_'
'atta'
'San'
'Egyptian_'
'ін'
'рі'
'wh'
'wave_'
'tali'
'rted_'
'rali'
'primarily_'
'motiv'
'mer_'
'meaning_'
'infe'
'ethe'
'condemn'
'biolog'
'apo'
'adapt'
'Rece'
'Pakistani_'
'Min'
'England_'
'Ei'
'BR'
'р_'
'sm'
'rie'
'reward'
'producers_'
'mark_'
'ite_'
'felt_'
'endo'
'ende'
'embar'
'die'
'dee'
'cut'
'cel'
'AI'
'wis'
'utu'
'teru'
'sort_'
'ro_'
'ris'
'reve'
'producing_'
'planning_'
'nati'
'mpe'
'mention_'
'legacy_'
'kh'
'ire_'
'invasion_'
'hal'
'geno'
'colo'
'bou'
'affect'
'Until_'
'Jews_'
'Isla'
'Investment_'
'David_'
'yield_'
'wake_'
'tto'
'reports_'
'penge'
'low'
'included_'
'financed_'
'embrace_'
'dictator'
'compete_'
'cheap_'
'Nic'
'2002_'
'with'
'vest'
'struc'
'spir'
'shock_'
'rs'
'resilien'
'pushed_'
'proceed'
'occupation_'
'miss'
'lih'
'lie_'
'ker_'
'gr'
'express'
'eng'
'enabled_'
'ela'
'crop'
'Ce'
','
'text'
'surp'
'rise'
'plants_'
'nationali'
'medi'
'lender'
'kee'
'implementation_'
'hold'
'exposed_'
'executi'
'cula'
'cre'
'continu'
'awar'
'Shi'
'ғы'
'udi'
'tariff'
'quo_'
'prosecut'
'practical_'
'orie'
'ministr'
'ins'
'indu'
'ile'
'extensi'
'educational_'
'educated_'
'die_'
'coo'
'az'
'Sin'
'Jer'
' ($_'
'underg'
'sudah_'
'strongly_'
'rif'
'rece'
'radi'
'of'
'ocati'
'oca'
'ngka'
'inct'
'fewer_'
'dox'
'diversity_'
'depression_'
'contracts_'
'achieving_'
'stro'
'shortage'
'sar'
'sala'
'philosoph'
'infectio'
'ind'
'gather'
'completely_'
'clo'
'carried_'
'bias'
'arise'
'U_'
'Ter'
'Growth_'
'Governments_'
'Defense_'
'transa'
'theor'
'tena'
'series_'
'sent_'
'report'
'promising_'
'pon'
'nk_'
'multi_'
'mere_'
'killing_'
'ignore_'
'engagement_'
'disrupt'
'disputes_'
'dema'
'cep'
'bubbles_'
'boosting_'
'bit_'
'belie'
'bailout_'
'Russians_'
'OECD_'
'Gor'
'Chancellor_'
'Ber'
'word_'
'woman_'
'transform'
'taxpayers_'
'sum'
'someone_'
'oro'
'meta'
'lm'
'link_'
'holds_'
'hear'
'front'
'endur'
'ends_'
'empower'
'cos'
'buying_'
'bear'
'add_'
'Namun_'
'ved_'
'tal_'
'speak'
'seek'
'resident'
'repeatedly_'
'pac'
'ous'
'noti'
'mutual_'
'les'
'late'
'investing_'
'intensive_'
'finding_'
'exception_'
'exception'
'enn'
'alli'
'advise'
'Sol'
'NP'
'Ira'
'ық_'
'мд'
'withdrawal_'
'viable_'
'vey'
'sentiment_'
'pli'
'pick'
'pass'
'lim'
'inspire'
'gla'
'fe_'
'father_'
'emotion'
'disagree'
'det'
'ctions_'
'crowd'
'costly_'
'correct'
'Portugal_'
'Kar'
'youth_'
'side'
'nity_'
'ien'
'concluded_'
'collecti'
'atic'
'ak'
'aan_'
'Shar'
'қар'
'wait_'
'usly_'
'stay_'
'publi'
'ngsi'
'nci'
'moo'
'modest_'
'kit_'
'isa'
'hum'
'heads_'
'faith_'
'emergency_'
'different'
'capabilities_'
'accompanied_'
'LA'
'DP'
'Canada_'
'Б'
'ys'
'ts'
'transport_'
'threatened_'
'tell_'
'sustainability_'
'survive_'
'suggested_'
'reveal'
'period'
'membu'
'main'
'libera'
'lect'
'enrich'
'engaged_'
'conducted_'
'chair'
'calling_'
'atte'
'Paul_'
'ір'
'ны'
'you'
'ura'
'uli'
'tele'
'prohibit'
'prior'
'pollution_'
'menja'
'long'
'ico'
'home'
'enhance_'
'desir'
'deserve'
'depress'
'cover'
'bargain'
'apply_'
'Ins'
'Dan'
'Amerika_'
'tting_'
'speak_'
'sia'
'revive'
'reasonable_'
'notably_'
'greenhouse_'
'ering_'
'closed_'
'card'
'autonom'
'alike_'
'300_'
'ай'
'wr'
'weak'
'ware_'
'trial_'
'transfers_'
'spar'
'rly_'
'occur'
'ob'
'mem'
'material_'
'intensif'
'inn'
'impli'
'ian'
'forest'
'elin'
'democrati'
'dat'
'cce'
'but'
'aspect'
'arti'
'ambitious_'
'alter'
'Tunisia_'
'Nonetheless_'
'Inc'
'Emp'
'2016_'
'.&'
'ғы_'
'yl'
'unw'
'tas_'
'supplies_'
'sales_'
'pull'
'perta'
'obse'
'nav'
'innovative_'
'identify_'
'grew_'
'failing_'
'desp'
'coordinate'
'aka'
'·'
'weaker_'
'uncertain_'
'seh'
'search_'
'reli'
'polls_'
'older_'
'nya'
'mic_'
'intell'
'fir'
'find'
'ff'
'fal'
'failures_'
'enga'
'doctor'
'deteriorat'
'destabiliz'
'Yes_'
'Qu'
'Ken'
'zz'
'xis'
'tik'
'ths_'
'speed_'
'soldiers_'
'parents_'
'organiz'
'onary_'
'ndu'
'mark'
'kti'
'juan'
'integrated_'
'harm_'
'fini'
'epi'
'enjoy'
'encou'
'dy'
'devi'
'depend'
'decisive_'
'celebrat'
'ale'
'aha'
'Uni'
'Summ'
'Hav'
'February_'
'– _'
'лық_'
'withdraw'
'vas'
'ust_'
'unan'
'uh_'
'turmoil_'
'sity_'
'rival'
'repu'
'psycholog'
'obligations_'
'newly_'
'mpu'
'mortgage_'
'iness'
'driver'
'dn'
'disappear'
'desc'
'citizen'
'broke'
'bin'
'attractive_'
'analy'
'Sim'
'Fre'
'”)'
'write_'
'winner'
'ult_'
'stand'
'rr'
'rant'
'pun_'
'operate_'
'nding_'
'got_'
'girls_'
'fri'
'effectiveness_'
'dio'
'contain_'
'confront_'
'communist_'
'com'
'cle'
'arm'
'approaches_'
'ao'
'Pop'
'Jin'
'Gre'
'Frank'
'Dr'
'uncon'
'seemingly_'
'quot'
'previously_'
'logic_'
'litera'
'line'
'ha_'
'gent'
'erg'
'env'
'ech'
'bang'
'anak_'
'alism_'
'agen'
'Singapore_'
'ған_'
'wall'
'undermining_'
'ssed_'
'puts_'
'pushing_'
'periphery_'
'mati'
'manufacture'
'kek'
'cis'
'cies_'
'bankruptcy_'
'allows_'
'Swi'
'Rom'
'My_'
'May'
'H_'
'Countries_'
'сын'
'tem'
'statement_'
'ruled_'
'roll'
'rc'
'pragmati'
'package_'
'migra'
'menc'
'lai'
'kons'
'kas'
'iron'
'introduced_'
'hie'
'flood'
'explanation_'
'demonstrat'
'circu'
'balanc'
'asse'
'acco'
'Ot'
'MA'
'Lan'
'Kosovo_'
'ия'
'wrote_'
'witness'
'welcome_'
'signal'
'sa_'
'profession'
'nowadays_'
'network_'
'nel'
'missi'
'mera'
'flexibility_'
'falls_'
'bot'
'asserti'
'arguments_'
'accomplish'
'Cam'
'terb'
'reform'
'preventing_'
'pi_'
'menca'
'may'
'mala'
'loy'
'ideology_'
'ially_'
'hospital'
'functioning_'
'fam'
'eliminate_'
'elements_'
'creates_'
'coup_'
'claimed_'
'characteri'
'chan'
'aca'
'Partnership_'
'Her'
'Health_'
'Colombia_'
'é_'
'xu'
'vulnerabilit'
'uri'
'transactions_'
'strike_'
'strain'
'perpet'
'ocr'
'managers_'
'lack'
'gras'
'gah_'
'fine'
'escape_'
'engine'
'enact'
'embrac'
'cover_'
'beberapa_'
'balanced_'
'Time'
'Mubarak_'
'Jordan_'
'IN'
'Exp'
'Comp'
'бе'
'vid'
'vac'
'starters_'
'sou'
'sole'
'selecti'
'sangat_'
'rulers_'
'org'
'nce'
'lity_'
'latter_'
'lain_'
'ines_'
'ily_'
'ice_'
'host'
'generated_'
'fect'
'eni'
'ean_'
'doubt'
'come'
'charge_'
'bru'
'acquire'
'X'
'Ol'
'usion'
'unres'
'sheet_'
'sad'
'recover'
'receiv'
'protecting_'
'print'
'pengu'
'oe'
'occasion'
'narr'
'mud'
'menge'
'malaria_'
'libert'
'kungan_'
'gate'
'exacerbate'
'ected_'
'barely_'
'bag'
'Cal'
'App'
'Ang'
'utin'
'tax'
'slowly_'
'sia_'
'roads_'
'rily_'
'ques_'
'part'
'pak'
'nor'
'night_'
'negotiating_'
'negotiat'
'nded_'
'mun'
'moral'
'kese'
'ins_'
'ino'
'ession'
'end'
'cyber_'
'concentrate'
'complain'
'Par'
'Imp'
'Communi'
'treati'
'south_'
'readi'
'rall'
'produk'
'pol'
'ome'
'mos'
'investasi_'
'initial_'
'inflows_'
'des'
'coordination_'
'cle_'
'addi'
'Spring_'
'Mill'
'J_'
'vis_'
'ters'
'ror'
'repres'
'pa_'
'olution'
'masyarakat_'
'lk'
'induce'
'gives_'
'formula'
'doubl'
'dh'
'depart'
'damp'
'daily_'
'Tw'
'Keynes_'
'IS'
'Ever'
'Dra'
'Blair_'
'Arab'
'2020_'
'threatening_'
'testi'
'strict'
'slu'
'saying_'
'regulate'
'possess'
'physic'
'passed_'
'obtain'
'norms_'
'ml'
'lat'
'kr'
'ify_'
'iali'
'humanity_'
'ext'
'consolidation_'
'communications_'
'aus'
'angan_'
'accounting_'
'Are'
'AIDS_'
'12'
'  _'
'wak'
'ty'
'tea'
'surpluses_'
'safeguard'
'rn_'
'refus'
'publicly_'
'predecessor'
'pal'
'ost'
'organized_'
'neu'
'minimum_'
'fear'
'err'
'eno'
'em_'
'corrupt_'
'budgets_'
'blood'
'autom'
'ambitions_'
'UN'
'Plan_'
'Ini'
'ES'
'ін_'
'ye'
'vag'
'unte'
'tional_'
'terba'
'television_'
'syn'
'support'
'subsequent_'
'ris_'
'revolutionary_'
'resulted_'
'reaction_'
'rati'
'predicti'
'pemi'
'ounce'
'ik'
'horr'
'hil'
'has'
'fragile_'
'entail'
'criminal_'
'chemical_'
'bold_'
'blood_'
'bles_'
'aks'
'Dar'
'Ant'
'Again'
'195'
'1930_'
'yp'
'visible_'
'uka'
'tz'
'total'
'released_'
'memiliki_'
'kesehatan_'
'imagin'
'expense_'
'eve'
'das'
'contro'
'conc'
'amba'
'Sweden_'
'Street_'
'Still_'
'Nat'
'Human_'
'Furthermore_'
'м_'
'vati'
'undertake'
'terl'
'surround'
'sub_'
'sch'
'rus'
'record'
'plo'
'patent'
'overse'
'lett'
'integr'
'gy'
'expressed_'
'dera'
'date_'
'conten'
'conduct_'
'Thailand_'
'PE'
'Nevertheless_'
'Ec'
'Brotherhood_'
'ша'
'тын'
'uma'
'shareholders_'
'rese'
'replace_'
'realize_'
'pron'
'produce'
'offset_'
'nominal_'
'lose'
'joined_'
'ities_'
'icul'
'flexible_'
'dismiss'
'deny'
'ded'
'cking_'
'bolster'
'ata'
'ality_'
'acting_'
'Mon'
'Market'
'Ker'
'2030_'
'1960_'
'15'
'yt'
'ych'
'ung'
'trouble'
'start'
'spa'
'sheets_'
'regi'
'operating_'
'ni_'
'logical_'
'insurgen'
'instruments_'
'gue'
'graph'
'fr'
'facilitat'
'ening_'
'elli'
'dable_'
'correct_'
'civilians_'
'charges_'
'bureaucrat'
'beneficia'
'badly_'
'arat'
'alarm'
'Xi'
'Soci'
'Sha'
'Mah'
'Beyond_'
'1989_'
'yak'
'xim'
'voting_'
'village'
'vaccin'
'unwilling'
'united_'
'town'
'surprisingly_'
'seka'
'reflecti'
'mpl'
'momentum_'
'mess'
'marked_'
'love'
'lah_'
'ideal_'
'ghe'
'fen'
'fed'
'examples_'
'ened_'
'computer_'
'coin'
'burn'
'attempts_'
'Crim'
'tle'
'tell'
'sport'
'separati'
'rim'
'quarters_'
'outs_'
'nent_'
'inevitably_'
'hing'
'hegemon'
'harder_'
'frame'
'exemp'
'entu'
'dominant_'
'discussions_'
'consider'
'brain_'
'bind'
'bill_'
'appeal_'
'War'
'Supreme_'
'Bank'
'қо'
'yan'
'worsen'
'wan_'
'tum'
'successfully_'
'substantially_'
'slow'
'silen'
'painful_'
'negotiate_'
'itas_'
'humans_'
'doo'
'dispute_'
'deva'
'demonstrate_'
'concerning_'
'code'
'cienc'
'appreciate'
'align'
'Ze'
'Mal'
'Ala'
'ад'
'ü'
'unions_'
'ssing'
'roy'
'returned_'
'rescue_'
'rement'
'pher'
'pe_'
'ort_'
'nted_'
'mistakes_'
'live'
'lig'
'let'
'ion'
'extended_'
'exporter'
'exercise_'
'convinced_'
'converge'
'contradict'
'conclusion_'
'clear'
'catch'
'bank'
'aw'
'alance'
'advances_'
'Wil'
'Mac'
'Bol'
'Т'
'version_'
'tests_'
'suspicio'
'stress_'
'ston'
'ster_'
'renewed_'
'quar'
'put'
'pose_'
'para_'
'omin'
'nas'
'merit'
'leaves_'
'ky'
'knew_'
'jun'
'factor'
'enter_'
'dog'
'dition'
'distri'
'dil'
'deli'
'consistent_'
'bin_'
'backs'
'attack'
'adult'
'Whether_'
'Progr'
'Christian_'
'% '
'yr'
'threaten_'
'thers_'
'successor_'
'sign'
'retail'
'pti'
'prepar'
'observe'
'nting_'
'newspaper'
'inju'
'ier_'
'hike'
'etic'
'down'
'divide_'
'custom'
'conte'
'circle'
'bull'
'Sp'
'PA'
'Cor'
'ор'
'vot'
'unch'
'transit'
'systemic_'
'sp'
'rre'
'rejecti'
'professional_'
'ownership_'
'meme'
'lo_'
'law'
'judgment'
'itt'
'immun'
'enabling_'
'deba'
'contribution_'
'conservati'
'commission'
'cket'
'borrowers_'
'bis'
'berk'
'atr'
'Saddam_'
'Pem'
'Can_'
'бас'
'za_'
'vit'
'users_'
'shifting_'
'respective'
'mot'
'irr'
'invit'
'hidup_'
'governmental_'
'eyes_'
'bill'
'att'
'atan'
'ask'
'actual_'
'Vo'
'Th'
'Rights_'
'Pres'
'Lib'
'Gi'
'Cent'
'Can'
'Atlantic_'
'ген'
'thre'
'teknologi_'
'surg'
'sistem_'
'sebe'
'rkan_'
'review_'
'respond'
'ratif'
'qual'
'pric'
'organi'
'inco'
'implementing_'
'image_'
'iled_'
'ich'
'guarantees_'
'fin'
'executive_'
'earnings_'
'dw'
'dict'
'dead_'
'cting_'
'corre'
'comfort'
'bodies_'
'Sm'
'Histor'
'Fl'
'Add'
':'
' , _'
'уы'
'yu'
'warning_'
'usual_'
'unco'
'types_'
'saat_'
'reca'
'purchase_'
'phe'
'peace'
'olde'
'mme'
'missile_'
'lower'
'loose'
'kus'
'extra_'
'exclusive'
'consequence_'
'clinic'
'ament'
'aggressi'
'accus'
'Tri'
'Spanish_'
'Peace_'
'Cl'
'ту'
'сы_'
'volunt'
'row'
'retirement_'
'reso'
'reason'
'raises_'
'plat'
'ord'
'nes_'
'immi'
'headed_'
'grant_'
'fee'
'entitle'
'elde'
'dut'
'divisi'
'discou'
'customers_'
'counterparts_'
'condition_'
'centers_'
'bridge'
'books_'
'anyw'
'abi'
'wa_'
'undoubtedly_'
'uk_'
'sive_'
'reverse_'
'repl'
'repea'
'refused_'
'rd_'
'posed_'
'perv'
'persuade'
'nine_'
'nian'
'nect'
'mobilize'
'managing_'
'lying_'
'lation'
'join'
'insp'
'honor'
'height'
'guard'
'giant'
'fted_'
'extend_'
'engineering_'
'dream_'
'downward_'
'def'
'bro'
'bran'
'bai'
'attract_'
'appea'
'Vic'
'Assembly_'
'к_'
'з_'
'weakening_'
'weakened_'
'weaken_'
'transparent_'
'tho'
'sym'
'simi'
'shing_'
'shadow'
'replaced_'
'protest_'
'predict_'
'pic'
'opened_'
'moderni'
'ks'
'icat'
'hou'
'handl'
'doesn_'
'determin'
'declined_'
'contributions_'
'attribut'
'ano'
'aftermath_'
'absolute'
'Germans_'
'Abbas_'
'22_'
'1997_'
'ude'
'twi'
'spoke'
'site_'
'sendi'
'scar'
'rose_'
'perusahaan_'
'offering_'
'multip'
'kinds_'
'illegal_'
'fying_'
'fundamentally_'
'dest'
'demanding_'
'delivered_'
'debates_'
'dau'
'assur'
'assessment_'
'ampl'
'acle_'
'Poli'
'Peru'
'vigor'
'traffic'
'tradition_'
'tapi_'
'system'
'sens'
'revealed_'
'read_'
'procedure'
'popul'
'pea'
'participants_'
'liz'
'lita'
'lasting_'
'ill'
'hro'
'foo'
'expanded_'
'engineer'
'discipline_'
'connection'
'confi'
'chari'
'build'
'ball_'
'ately_'
'approval_'
'antag'
'ace'
'Sh'
'Cuba_'
'Ali'
'Ale'
'voted_'
'voca'
'ulat'
'tak'
'surge_'
'simultaneously_'
'shar'
'seize'
'pit'
'narrow_'
'lish'
'k'
'import_'
'ient_'
'hero'
'ene'
'eastern_'
'definiti'
'deals_'
'criticize'
'cautio'
'are'
'angg'
'anan'
'agi'
'ен'
'versi'
'variety_'
'upp'
'taxation_'
'simpl'
'row_'
'responses_'
'refer'
'offic'
'menda'
'lacks_'
'instan'
'holders_'
'happening_'
'gal'
'forme'
'domin'
'diverse_'
'cross'
'cert'
'car_'
'ass'
'amm'
'Unlike_'
'Senate_'
'Much_'
'Morsi_'
'Keynesian'
'HI'
'Energy_'
'24_'
'wisdom_'
'ungan_'
'twice_'
'triggered_'
'succ'
'specifi'
'revolution'
'relationships_'
'reck'
'rarely_'
'purchasing_'
'pola'
'partnership_'
'obst'
'nter'
'mobile_'
'mal_'
'frequently_'
'encouraged_'
'depreciation_'
'cultur'
'compensation_'
'cease'
'assum'
'applied_'
'absorb'
'Mas'
'Cur'
'California_'
'Bri'
'Art'
'Arm'
'widen'
'vity_'
'umi'
'succeeded_'
'subm'
'streets_'
'storm'
'sin_'
'rous_'
'root_'
'responsibilities_'
'protect'
'pain_'
'original_'
'moderat'
'lti'
'lete'
'interventions_'
'grave'
'gat'
'ethical_'
'emu'
'eliminati'
'dua_'
'confrontation_'
'complicated_'
'coast'
'chaos_'
'bene'
'acqui'
'accountability_'
'Tim'
'Sun'
'SD'
'Roman'
'Pan'
'ME'
'Conf'
'Church'
'worried_'
'was'
'use'
'ural_'
'ultimate_'
'struggling_'
'signifi'
'safe'
'rem'
'refuse'
'nis'
'melt'
'improvement_'
'halt'
'fashion'
'explain'
'except_'
'dropp'
'dimension'
'debtor'
'communi'
'baik_'
'ara_'
'Part'
'L_'
'Dec'
'т_'
'лі'
'worth'
'trials_'
'stimulate_'
'runs_'
'reject'
'provision_'
'penduduk_'
'pass_'
'obs'
'neglect'
'mater'
'mainstream_'
'liam'
'lan_'
'incon'
'downturn_'
'divid'
'discourag'
'decent'
'bs_'
'brings_'
'authori'
'atic_'
'appli'
'ante'
'adverse_'
'accurate'
'accommodat'
'Wor'
'TB'
'Pla'
'Philippines_'
'Modi_'
'йы'
'wind_'
'treated_'
'thou'
'suspect'
'strengthened_'
'steri'
'rod'
'rity_'
'protest'
'proportion_'
'properly_'
'prison'
'occup'
'nal_'
'motivate'
'lem'
'habit'
'genera'
'facilities_'
'expo'
'exh'
'exclude'
'devastating_'
'destroy_'
'defeat'
'dark'
'cyclical_'
'crat'
'cont'
'civ'
'champion'
'brutal_'
'bod'
'birth_'
'achi'
']'
'Yemen_'
'Sela'
'Rec'
'Netherlands_'
'Gs_'
'Four'
'Del'
'Compa'
'Act_'
'yields_'
'yat'
'usi_'
'stopped_'
'ssion'
'species_'
'sky'
'sional_'
'sie'
'scarc'
'ric_'
'researchers_'
'reputation'
'prompt'
'pointed_'
'narrative_'
'lian'
'idi'
'gree'
'evi'
'entit'
'enhance'
'draw_'
'dealing_'
'creat'
'complet'
'alleged'
'ace_'
'academic_'
'[_'
'Thi'
'Sudan_'
'Scien'
'Gene'
'FA'
'zh'
'voice_'
'uth'
'transmi'
'ti_'
'thirds_'
'stated_'
'soft'
'sites_'
'ships_'
'rp'
'rl'
'prison_'
'penga'
'pack'
'ot_'
'ociat'
'notion_'
'ngl'
'memban'
'lum'
'lio'
'liberali'
'kelo'
'isolate'
'initially_'
'ggi'
'funded_'
'extremists_'
'erla'
'disappoint'
'deposit'
'define'
'boom'
'aside_'
'appeared_'
'appeal'
'ands_'
'Sub'
'Hen'
'unn'
'university_'
'ugh'
'suppress'
'strategi'
'stati'
'sses_'
'shrink'
'ruction'
'piece'
'phase_'
'opia'
'njian'
'nai'
'mili'
'libr'
'lerat'
'legal'
'ivity_'
'initiate'
'helps_'
'gues'
'fare'
'esse'
'ern'
'diversif'
'distinguish'
'disma'
'destin'
'dang'
'cient'
'chronic_'
'black_'
'berg'
'aint'
'advice_'
'adi'
'Face'
'Dutch_'
'BRICS_'
'Alli'
'жы'
'xa'
'uel'
'tte'
'travel_'
'supposedly_'
'spread'
'rri'
'restrain'
'request'
'ratio'
'racted_'
'proper_'
'presidents_'
'occupied_'
'minorities_'
'menta'
'lis'
'ku_'
'imperative_'
'ika'
'hur'
'heal'
'hange'
'gets_'
'eme'
'dominate'
'diplomat'
'dari'
'connect'
'ama_'
'accident'
'Sec'
'Ev'
'Department_'
'Cas'
'Burma_'
'?”'
'192'
'және_'
'yon'
'ulator'
'uis'
'ud_'
'ttle'
'seque'
'qi'
'prudent'
'prefer_'
'pembangunan_'
'ner'
'nde'
'nat'
'multiple_'
'mediat'
'lever'
'kri'
'kill'
'jur'
'itte'
'grou'
'fragment'
'fact'
'expenditures_'
'empt'
'ega'
'comme'
'collapsed_'
'cite'
'aware_'
'Ukrainian'
'Shin'
'PARIS_'
'ISIS_'
'Gam'
'Far'
'Dea'
'Abd'
'ұр'
'ми'
'ді_'
'yan_'
'wealthy_'
'vio'
'tern'
'substitut'
'stagna'
'solid'
'selling_'
'secu'
'sac'
'referen'
'question'
'profitab'
'privilege'
'plant_'
'origin'
'nga'
'negotiated_'
'mpin'
'industrializ'
'ideal'
'iati'
'generating_'
'escalat'
'enting_'
'ench'
'deposits_'
'career'
'boy'
'Sup'
'Mao'
'LI'
'Int'
'Convention'
'CI'
' –'
'уд'
'ні'
'ес'
'white_'
'warned_'
'understandabl'
'teach'
'stics_'
'smo'
'sions_'
'similarly_'
'risi'
'preventi'
'milit'
'mengg'
'memberi'
'mad'
'llow'
'lai_'
'kea'
'issi'
'integrat'
'igat'
'ified_'
'hamp'
'estimate_'
'ease_'
'drawn_'
'dece'
'courts_'
'consume'
'confus'
'communism_'
'cells_'
'burden'
'beat'
'autocra'
'attracti'
'Mad'
'Kr'
'yes'
'unk'
'shr'
'pension'
'methods_'
'mea'
'mature'
'harm'
'gag'
'fourth_'
'ez'
'dispar'
'demographic_'
'corn'
'concept'
'beri'
'anniversary_'
'alternatives_'
'afford'
'Law'
'Fin'
'Cai'
'26'
'ци'
'ның_'
'volume'
'vers_'
'valuable_'
'unda'
'unce'
'terk'
'strat'
'stories_'
'somewhat_'
'redi'
'quit'
'peak_'
'partisan_'
'minimiz'
'minds_'
'mile'
'jihadi'
'happi'
'fortun'
'erl'
'embo'
'discrimination_'
'directed_'
'damaging_'
'criteri'
'cked_'
'carefully_'
'affi'
'Sem'
'Jon'
'Financ'
'. '
'vak'
'umbe'
'ugu'
'state'
'shares_'
'represented_'
'redu'
'rating_'
'presum'
'male'
'loom'
'loa'
'imb'
'governing_'
'gm'
'flat'
'facts_'
'exer'
'did'
'deadl'
'cles_'
'clea'
'cars_'
'block_'
'blam'
'automatic'
'aspiration'
'The'
'Pad'
'Med'
'Afghan_'
'wn'
'undermined_'
'tech_'
'strikes_'
'rela'
'ranc'
'rah'
'phone_'
'oned_'
'mes'
'kawasan_'
'itation'
'identified_'
'got'
'foresee'
'film'
'fails_'
'dispos'
'criti'
'craft_'
'component_'
'combin'
'cho'
'bigger_'
'benefited_'
'Zh'
'Offic'
'Moham'
'Justice_'
'IA'
'Angela_'
'Acc'
'21_'
'.  _'
'мп'
'wed_'
'uring_'
'urban'
'throw'
'techni'
'suff'
'sophisticated_'
'socialis'
'smart_'
'sb'
'rightly_'
'reviv'
'reti'
'representatives_'
'repay'
'rai'
'pursued_'
'pure'
'plum'
'participate_'
'pare'
'pai_'
'owners_'
'onom'
'nur'
'measured_'
'logy_'
'ication_'
'gic'
'dred'
'contin'
'consistently_'
'commen'
'collaborati'
'bud'
'bilit'
'argues_'
'apparently_'
'amp_'
'acts_'
'act'
'Seve'
'Policy_'
'Han'
'бір'
'zy'
'xon_'
'winning_'
'weather_'
'trem'
'tati'
'showing_'
'separate_'
'sas'
'replac'
'ph'
'overc'
'operation_'
'nge_'
'margin'
'liat'
'kir'
'greatly_'
'geograph'
'fract'
'fol'
'drag'
'dozen'
'ctua'
'comb'
'aries_'
'acr'
'abandon_'
'Wal'
'Val'
'True_'
'Mediterranean_'
'Medic'
'Im'
'Fis'
'ET'
'DE'
'Copenhagen_'
'Brussels_'
'Berlin_'
'1999_'
'йд'
'wonder_'
'unders'
'spirit_'
'sme'
'shal'
'send_'
'repression_'
'repai'
'reliable_'
'rei'
'regain'
'reconcili'
'rational_'
'perfect_'
'pab'
'ott'
'origina'
'mortgages_'
'ley_'
'kua'
'jak'
'interven'
'indicati'
'fs'
'fou'
'fac'
'devote'
'committee'
'chu'
'bust'
'application'
'Libera'
'Fai'
'1950'
'…'
'қта'
'ward'
'und_'
'ught_'
'trigger_'
'time'
'term'
'stocks_'
'skill'
'ski'
'renewable_'
'public'
'proven_'
'prop'
'phenomenon_'
'pali'
'obi'
'north_'
'nents_'
'moves_'
'minati'
'meaningful_'
'kepa'
'istic_'
'gaining_'
'fundamentalis'
'difficulties_'
'dg'
'compensat'
'berp'
'bat_'
'arrive'
'architect'
'adjusted_'
'She_'
'Ric'
'Political_'
'Let_'
'Kenya_'
'High_'
'Ea'
'Di_'
'BO'
'Any_'
'And'
'ко'
'yer'
'where'
'ums'
'uan_'
'tw'
'ture'
'tment'
'spec'
'scor'
'rooted_'
'resp'
'recover_'
'province'
'port_'
'pari'
'overwhelming_'
'otic'
'ordina'
'optimist'
'nies_'
'nic_'
'loyal'
'ith'
'insur'
'iate'
'heard_'
'gian'
'gation'
'fund'
'fti'
'focusing_'
'fis'
'facilitate_'
'eye'
'expecta'
'excess'
'endorse'
'describe'
'consci'
'concrete_'
'compos'
'cid'
'breakthrough'
'boun'
'berba'
'begi'
'advan'
'SO'
'Pet'
'Northe'
'Myanmar_'
'Moscow_'
'Mes'
'Malaysia_'
'Frie'
'Free_'
'Cou'
'CEO'
'BE'
'Ak'
'Agency_'
'191'
' '
'virus'
'vice_'
'umb'
'uca'
'transformed_'
'transform_'
'tics_'
'thin_'
'terjadi'
'tendenc'
'slav'
'requi'
'regarding_'
'progr'
'perception_'
'panic'
'modernization_'
'mobility_'
'meli'
'meas'
'maintained_'
'loan_'
'lived_'
'limiting_'
'lainnya_'
'kli'
'justify_'
'investigati'
'grad'
'foundation_'
'fertil'
'faction'
'evolve'
'enjoy_'
'eness_'
'enal'
'delay'
'convict'
'consult'
'conclude'
'colonial'
'capture_'
'bun'
'broadly_'
'band'
'apart_'
'answer'
'Nor'
'None_'
'Is'
'Institute_'
'City_'
'Austria'
'Ann'
'vene'
'underwa'
'tist'
'tib'
'tent_'
'surveillance_'
'spill'
'slo'
'renew'
'remark'
'reliance_'
'prosperous_'
'presc'
'planned_'
'perlu'
'penden'
'nsi'
'melalui_'
'inve'
'insula'
'ial'
'hink'
'guna'
'favorabl'
'explor'
'eran'
'earne'
'dibandingkan_'
'denie'
'creative_'
'considerably_'
'congr'
'colleagues_'
'capa'
'by'
'beral'
'analyst'
'aims_'
'advantages_'
'ack'
'abuse_'
'Ts'
'Rel'
'Bill_'
'1990s_'
'yed_'
'urit'
'turns_'
'talk'
'suppl'
'spring'
'scheme_'
'route'
'remember_'
'relati'
'reas'
'realistic_'
'prox'
'progressive_'
'paraly'
'opp'
'nj'
'new'
'nesse'
'metr'
'meters_'
'materials_'
'manner_'
'lac'
'kilo'
'investor_'
'intr'
'inca'
'inability_'
'harga_'
'grounds_'
'dr'
'display'
'dilemma'
'commit_'
'coa'
'challenging_'
'battl'
'audi'
'art'
'Year'
'Tra'
'Some'
'Christi'
'Қ'
'іл'
'сал'
'worri'
'tribu'
'thanks_'
'temperature'
'teacher'
'strong'
'rien'
'raw'
'pita'
'pertumbuhan_'
'penya'
'obe'
'memu'
'macro'
'luk'
'lalu'
'journal'
'involvement_'
'invested_'
'intervene_'
'inta'
'institu'
'impede'
'ignored_'
'ifi'
'gul'
'gh_'
'general'
'found'
'error'
'enemies_'
'ede'
'discon'
'design'
'consolidat'
'Pr'
'Islamists_'
'FT'
'75_'
'ды'
'unst'
'unemployed_'
'underpinn'
'trib'
'touris'
'tool_'
'struggle'
'sting_'
'secret_'
'rican'
'remin'
'preference'
'predi'
'overwhelm'
'odd'
'mulati'
'mega'
'mant'
'liabilities_'
'justifi'
'hak_'
'guide_'
'graduat'
'fresh'
'emphasis_'
'eat_'
'confe'
'Wood'
'Ren'
'Nei'
'HO'
'Fatah_'
'27_'
'yn'
'yen_'
'who'
'warn'
'vel'
'unh'
'umu'
'tif'
'threatens_'
'tasi'
'tanta'
'supr'
'suggesti'
'successi'
'subject'
'station_'
'shut'
'resign'
'rendah'
'remo'
'overha'
'oppose_'
'ogen'
'menun'
'mengi'
'mele'
'master'
'mandat'
'loc'
'indic'
'globally_'
'equipment_'
'distr'
'displaced_'
'deliberate'
'dama'
'crimina'
'comprise'
'civilization'
'characterized_'
'believes_'
'background'
'author'
'Who_'
'Q'
'MD'
'Ethi'
'Er'
'Czech'
'Bet'
'Bashar_'
'Authority_'
'зд'
'в'
'weapon'
'verag'
'va_'
'treat_'
'secret'
'resort_'
'repr'
'redistribut'
'rebuild'
'propo'
'polari'
'ped'
'outright_'
'obat'
'nut'
'numer'
'nist'
'nec'
'lateral'
'kill_'
'inso'
'insiste'
'inside_'
'indebted'
'ight_'
'grat'
'explosi'
'epidemi'
'enthusias'
'eager'
'dys'
'defe'
'convert'
'cei'
'calcul'
'ani_'
'aki'
'administrati'
'Stan'
'Kurd'
'Gh'
'Abo'
';'
'wish_'
'whe'
'waste_'
'vali'
'unleash'
'surviv'
'suicid'
'sound'
'solve'
'shak'
'sexual_'
'sensible_'
'seja'
'routine'
'retain_'
'responded_'
'rence'
'prope'
'prolonged_'
'pressing_'
'preceden'
'plenty_'
'pert'
'patterns_'
'opi'
'mpok_'
'militari'
'map_'
'lash'
'kap'
'inclusion_'
'gence'
'frustrati'
'formi'
'female_'
'expression_'
'dura'
'dominance_'
'classic'
'cend'
'assumed_'
'appe'
'Prote'
'Mer'
'English_'
'Berna'
'Bag'
'17'
'қты'
'ің_'
'unsu'
'thriv'
'tal'
'supplie'
'suddenly_'
'sty'
'statements_'
'sphe'
'spect'
'situa'
'scandal'
'quick_'
'profess'
'pris'
'presented_'
'pill'
'openly_'
'neighboring_'
'melakukan_'
'lusi'
'jik'
'isolation_'
'ipt'
'importantly_'
'hurt'
'gion'
'generous'
'extraordinary_'
'combat_'
'chance'
'berd'
'barre'
'Speci'
'ST'
'MI'
'Leader'
'Grou'
'Agreement_'
'28_'
'zen'
'usal'
'unfor'
'tradable_'
'tional'
'tinggi_'
'tere'
'strang'
'sl'
'shop'
'sacrifice'
'rth'
'roots_'
'recall'
'qualifi'
'quake'
'posit'
'penal'
'officer'
'nei'
'manage'
'lb'
'lant'
'iste'
'indis'
'implicit'
'hom'
'gin'
'fil'
'fight'
'fifth'
'fie'
'extrem'
'evil'
'equit'
'ecu'
'disruption'
'demonstration'
'coverage_'
'backing_'
'announcement'
'Ur'
'Stability_'
'Nuclear_'
'Mich'
'Hollande_'
'Exc'
'Cro'
'Chávez_'
'рд'
'written_'
'vere'
'translate'
'tories_'
'terp'
'symptom'
'sum_'
'sual'
'stan_'
'semi'
'sektor_'
'sectarian'
'reate'
'ray'
'rar'
'pul'
'prete'
'preserve_'
'patient_'
'ound_'
'orit'
'nse'
'minded_'
'manipulation_'
'lt_'
'lization_'
'kha'
'iu'
'issu'
'inciden'
'impressive_'
'governor'
'financi'
'expansion'
'evol'
'erode'
'equa'
'enhancing_'
'distribute'
'cure_'
'courage'
'central'
'caught_'
'cast_'
'Turk'
'Should_'
'Seb'
'Robert_'
'Qaddafi_'
'Inde'
'23_'
'zon'
'wat'
'vidu'
'tion'
'robo'
'reluctant_'
'prin'
'poorer_'
'obstacles_'
'nger_'
'nf'
'neo_'
'ndo'
'mete'
'maj'
'lized_'
'iva'
'island_'
'insufficient_'
'influenc'
'hn'
'happy_'
'ges'
'gel'
'fication'
'evaluat'
'enemy_'
'distress'
'dam'
'counterp'
'contest'
'constructi'
'coe'
'chain_'
'berke'
'atmosphere_'
'acknowledge'
'You_'
'Southeast_'
'Every_'
'Bangladesh_'
'40'
' – '
'wre'
'umen'
'transport'
'trac'
'sul'
'straight'
'speciali'
'slower_'
'seas'
'sand'
'rast'
'qualit'
'privatiz'
'priat'
'predictabl'
'pois'
'platform_'
'parallel'
'ou_'
'opoli'
'noted_'
'journalists_'
'involving_'
'involve_'
'intense'
'instrumen'
'improvements_'
'hub'
'house'
'hedg'
'heart'
'gur'
'gua'
'gal_'
'frau'
'feel'
'famous_'
'even'
'environment'
'draft'
'dian'
'defl'
'cooperati'
'contrac'
'compet'
'commenta'
'cit'
'chains_'
'cate_'
'cast'
'atur'
'akhir'
'Wat'
'She'
'ON_'
'OC'
'Norw'
'Kor'
'Inv'
'IB'
'Hungary_'
'Harvard_'
'Elect'
'DR'
'өз'
'ге_'
'violation'
'trate'
'spectac'
'shel'
'sensitive_'
'rtionate'
'role'
'reformi'
'quanti'
'profi'
'phon'
'perse'
'peny'
'pendidikan_'
'pela'
'pee'
'participa'
'moc'
'minu'
'match_'
'luck'
'location'
'lled_'
'kinan_'
'itim'
'interacti'
'insist_'
'innovations_'
'influential_'
'hai'
'eta'
'ere'
'employers_'
'draw'
'doctrine'
'devaluation_'
'contract_'
'conse'
'challenge'
'catastrophe_'
'captur'
'blind'
'ationa'
'anima'
'accused_'
'White_'
'Tibet'
'TO_'
'Sw'
'Scotland_'
'Mala'
'Kurdish_'
'Front'
'Forum_'
'Catholic'
'65'
'utt'
'unu'
'unb'
'uge'
'superior'
'sufficien'
'spot'
'shifts_'
'secondary_'
'scholar'
'ription'
'reh'
'rail'
'prominent_'
'principal'
'preserv'
'popula'
'ponsib'
'pens'
'pain'
'ourselves_'
'ose_'
'miti'
'lor'
'links_'
'li_'
'irres'
'impu'
'granted_'
'feas'
'extend'
'enlarge'
'enforcement_'
'cta'
'crack'
'confident'
'condition'
'cara_'
'calculation'
'arrange'
'approved_'
'anal'
'albeit_'
'accession_'
'Strateg'
'PRI'
'Industr'
'Cla'
'Among_'
'ти'
'ри'
'ó'
'vir'
'underscor'
'tual'
'tighte'
'scre'
'rov'
'pter'
'pat_'
'obviously_'
'niz'
'neur'
'ners_'
'monopoly_'
'min_'
'liqu'
'lighte'
'kup'
'kip'
'hydr'
'guided_'
'ghbor'
'extremism_'
'exists_'
'erati'
'eka'
'deterre'
'dele'
'defa'
'coup'
'content_'
'consist'
'conf'
'comparison'
'clash'
'belong'
'asy'
'aikan_'
'achieve'
'accumulati'
'abuse'
'Kyo'
'Denmark_'
'Before_'
'1998_'
'де_'
'yek_'
'volatile_'
'visi'
'think'
'tee'
'success'
'rush'
'policymaking_'
'picture_'
'pharmaceutical'
'ose'
'offens'
'ny'
'nove'
'nan_'
'mula'
'mism'
'masa_'
'lip'
'lay_'
'lap'
'ketika_'
'internationally_'
'inha'
'informal_'
'index_'
'imposing_'
'gka'
'fueling_'
'emisi_'
'dm'
'dictatorship_'
'defens'
'concession'
'burs'
'beh'
'annya_'
'affl'
'adhere'
'achievement_'
'Spe'
'Sing'
'Shanghai_'
'Serikat_'
'Para'
'Musharraf_'
'Const'
'Bud'
'workforce_'
'wild'
'unfair'
'tsunami'
'tract'
'tate'
'statistics_'
'slightly_'
'skilled_'
'seats_'
'rebalancing_'
'rci'
'provok'
'provisions_'
'promote'
'portfolio'
'ope'
'militant'
'medic'
'manipulat'
'magni'
'listen'
'lism_'
'lematic_'
'lean'
'kin_'
'inefficient_'
'fort'
'false_'
'exclu'
'evident_'
'entrepreneurs_'
'entered_'
'emen'
'electorate_'
'date'
'connected_'
'concentrati'
'compelling_'
'ca_'
'bureaucrac'
'avoided_'
'attempting_'
'ain_'
'agr'
'accelerate_'
'Serbia_'
'Sahara'
'SDR'
'RA'
'Ou'
'Oc'
'Mak'
'Hitler_'
'Fr'
'Conservati'
'Change_'
'Afrika_'
'мы'
'жо'
'бұ'
'vert'
'univers'
'triumph'
'trav'
'tragedy_'
'talent_'
'striking'
'setia'
'rva'
'ression'
'rare_'
'rand'
'priva'
'populism_'
'personal'
'persistent_'
'outr'
'nutrition_'
'nomina'
'ms'
'mpin_'
'mitigate'
'meni'
'lawyer'
'interp'
'inflati'
'gna'
'feature'
'expenditure_'
'electro'
'dilakukan_'
'ctive_'
'bann'
'antar'
'amou'
'adapt_'
'acceptable_'
'You'
'Romney_'
'Recent_'
'Olympic'
'CO'
'1991_'
'woo'
'waters'
'vehicles_'
'unexp'
'unconventional_'
'uju'
'tetap'
'tale'
'tahu'
'suspen'
'staff_'
'solar_'
'serta_'
'sban'
'roll_'
'rist'
'resolved_'
'pow'
'poten'
'pasa'
'optimi'
'mut'
'mode'
'merc'
'llo'
'lier'
'ler_'
'jutan_'
'ji_'
'interfer'
'innoc'
'infr'
'impress'
'iki'
'hype'
'honest'
'have'
'hate'
'foreigner'
'familiar'
'fak'
'eri_'
'enu'
'dv'
'ds'
'div'
'crash_'
'cot'
'clou'
'child'
'cemen'
'careful_'
'bol'
'berh'
'asylum_'
'arian'
'aran_'
'anya'
'anticipate'
'animals_'
'alan'
'abun'
'SC'
'Research'
'Others_'
'Jos'
'Ebola_'
'Corporat'
'Army_'
'walk'
'valen'
'usu'
'usive'
'unpre'
'ulation'
'uctive_'
'tes'
'tari'
'tackle'
'stick'
'seri'
'rma'
'predicted_'
'portra'
'paradox'
'outsi'
'ore_'
'onto_'
'ois'
'oh'
'ogy_'
'nation'
'missing_'
'merg'
'medicine_'
'looked_'
'lari'
'khir'
'jal'
'imply_'
'iling'
'fut'
'foundation'
'existent'
'duct'
'dua'
'determination_'
'comple'
'competen'
'commodi'
'brand'
'br'
'association'
'akin'
'acknowledge_'
'accelerati'
'Three_'
'Hal'
'Gold'
'Citi'
'Aus'
'Alg'
'' _'
'zard'
'uous'
'torture'
'sition'
'scien'
'revisi'
'reminde'
'refi'
'recruit'
'provide'
'propaga'
'prepare_'
'plac'
'perja'
'penu'
'pag'
'osis'
'mounting_'
'modi'
'meetings_'
'mbang'
'manif'
'locat'
'lobby'
'j'
'iven'
'gap'
'functional_'
'erupted_'
'efe'
'constituen'
'competit'
'ase'
'artificial'
'antibioti'
'ancie'
'amend'
'allocation'
'allocate'
'Politic'
'Mem'
'Goal'
'Francis'
'FD'
'Def'
'Cyprus_'
' –&'
'кел'
'waiting_'
'vate'
'urb'
'ural'
'unin'
'unacc'
'toxi'
'tank'
'tac'
'stabilize_'
'sold_'
'signal_'
'semakin_'
'rival_'
'resist_'
'render'
'poorly_'
'person'
'peni'
'ntu'
'nke_'
'jud'
'irat'
'intra'
'hit'
'field'
'fell'
'erate_'
'depan_'
'compromis'
'communicati'
'claim'
'alah'
'Through'
'Stalin_'
'Rich'
'Clearly_'
'19_'
'vani'
'tude'
'terd'
'subst'
'smok'
'severely_'
'selama_'
'risen_'
'revol'
'repeated_'
'rava'
'rational'
'procla'
'practic'
'pleas'
'pipeline'
'performing_'
'penda'
'peg'
'pal_'
'openness_'
'oma'
'neighborhood'
'marriage'
'market'
'manu'
'lend_'
'karbon'
'juta'
'jeopard'
'interc'
'inherent'
'illness'
'hunger_'
'humiliat'
'hnya_'
'hasil'
'grade_'
'gil'
'flee'
'finances_'
'examine'
'edge'
'disar'
'director'
'destroyed_'
'chin'
'cc'
'categor'
'bua'
'anxiety_'
'accumulate'
'abl'
'WI'
'Qatar'
'Power'
'Polish_'
'LO'
'Hun'
'Bosnia'
'Board'
'Big_'
'201'
'."_'
'үш'
'лер'
'veto'
'vaccines_'
'uin'
'ubl'
'taha'
'surr'
'surf'
'sun'
'shape'
'semua_'
'seluruh'
'rib'
'resembl'
'reacti'
'rce_'
'pursuit'
'pool'
'pin_'
'peoples_'
'oci'
'nerships_'
'mutual'
'meth'
'menya'
'mengen'
'masih_'
'lun'
'kok'
'kare'
'incur'
'incl'
'evolution_'
'essa'
'earn_'
'door_'
'donors_'
'destruct'
'demic'
'daya_'
'couple_'
'compar'
'ches'
'benc'
'ballo'
'asan'
'arbitra'
'anger_'
'Za'
'Public_'
'Mont'
'IR'
'Dal'
'Cong'
'Capit'
' &'
'wee'
'wast'
'tolera'
'titu'
'tind'
'thro'
'tende'
'sudden_'
'slowing_'
'serving_'
'securi'
'sak'
'rik_'
'q'
'protected_'
'osi'
'ook'
'nica'
'nasi'
'mener'
'luar'
'lah'
'kka'
'justified_'
'inherit'
'ification'
'hyp'
'hee'
'guaranteed_'
'gradual_'
'genocide'
'eria_'
'eradicat'
'episod'
'entrepreneur'
'entar'
'empire_'
'elemen'
'dule'
'distincti'
'devis'
'delay_'
'dangers_'
'contraction'
'complic'
'cens'
'bukan'
'broken_'
'breaking_'
'ape'
'ange'
'agent'
'ae'
'acute'
'abandoned_'
'Sustain'
'Sand'
'Mexican_'
'Google_'
'Educati'
'1979_'
'со'
'но'
'ymo'
'vious'
'urish'
'underestimat'
'typi'
'trali'
'toleran'
'spli'
'shale_'
'requiring_'
'removed_'
'release_'
'rabl'
'postpone'
'ought_'
'olo'
'nning'
'nal'
'mungkin'
'mise'
'meningkatkan_'
'mening'
'lc'
'kete'
'ineffect'
'importe'
'heav'
'harmon'
'frequen'
'flight'
'explained_'
'experiencing_'
'erin'
'erc'
'ence'
'eans_'
'division_'
'dih'
'dies_'
'didn_'
'dana_'
'computer'
'chno'
'berkembang_'
'bbl'
'baka'
'article'
'ah'
'Yan'
'Unless_'
'Somali'
'Mis'
'Glob'
'Dev'
'Constitution_'
'Conference_'
'Chen'
'Berlusconi_'
'ин'
'wil'
'urgently_'
'uphold'
'uktu'
'uit'
'tujuan'
'tightening_'
'technocra'
'tch_'
'survey_'
'sponsor'
'span_'
'sooner_'
'ructure_'
'reconst'
'reassur'
'quest'
'populari'
'politician_'
'penting_'
'osev'
'omic_'
'olve'
'ntle'
'nea'
'mortal'
'memi'
'mac'
'lihood_'
'lembaga_'
'isl'
'insight'
'inex'
'indicators_'
'imperial_'
'imm'
'headline'
'globali'
'gga'
'feeling_'
'features_'
'fasci'
'existence_'
'erv'
'ensi_'
'ency'
'disintegra'
'deleg'
'cto'
'coop'
'convers'
'controversial'
'contempora'
'compr'
'complexit'
'clar'
'cell_'
'bir'
'agg'
'activists_'
'Work'
'SE'
'ID_'
'Hillary_'
'Gra'
'EA'
'Cris'
'Back'
'Ahmadinejad_'
'2050_'
', '
'ік_'
'сы'
'zes_'
'xid'
'warr'
'violate'
'terma'
'tentang_'
'targeting_'
'sung'
'statis'
'sosi'
'sex_'
'resi'
'reducti'
'rated_'
'quiet'
'quently_'
'purpose'
'outlook_'
'minyak_'
'merupakan_'
'mengh'
'maximiz'
'liab'
'keuangan_'
'itutional'
'interpretation'
'instal'
'insecur'
'immens'
'hara'
'forth'
'effi'
'dica'
'decreas'
'consen'
'condu'
'coheren'
'choo'
'cheape'
'centr'
'carri'
'bulan'
'assembl'
'accounta'
'USS'
'Slo'
'Ris'
'Pers'
'Khamenei_'
'FO'
'Democracy_'
'DNA_'
'Cooperati'
'Chairm'
'Air'
'1980'
'('
'Ш'
'ф'
'ç'
'э'
'à'
'\'
'‘'
'—'
'»'
'«'
'С'
'"'
'?'
'&'
'¥'
'$'
'х'
'О'
'�'
'ñ'
'+'
'’'
'Е'
'Р'
'ғ'
'­'
'-'
'М'
'ю'
'ь'
'í'
'Ж'
'Д'
'ö'
'ä'
'К'
'И'
'º'
'°'
'“'
'ú'
'ï'
'£'
'è'
'Г'
'ć'
'Н'
'П'
'€'
'Ф'
'В'
'ł'
'ã'
'É'
'Ө'
'Ұ'
'ц'
'ô'
'ń'
'š'
'•'
'Х'
'һ'
'Э'
'/'
'Ә'
'ê'
'–'
'−'
'Л'
'І'
'ş'
'ğ'
'â'
'Á'
'Ү'
'ž'
'‒'
'У'
'ō'
'Й'
'č'
'ч'
'ę'
'Ö'
'´'
'@'
'‑'
'Ю'
'Ь'
'ø'
'Ғ'
'ū'
'œ'
'ı'
'₂'
'‎'
'ε'
'Š'
'å'
''
''
'='
'™'
'⁰'
'ē'
'î'
'ë'
'Ó'
'Î'
'*'
'''
'机'
'市'
'城'
'危'
'Я'
'́'
'˚'
'ș'
'Ž'
'ű'
'õ'
'Ü'
'Ã'
'±'
''
'％'
'≤'
'ứ'
'Ч'
'Ц'
'Χ'
'Φ'
'ə'
'ȃ'
'ś'
'ő'
'İ'
'Č'
'ă'
'ð'
'æ'
'Ò'
'Ç'
'Å'
'¼'
'`'
'['
'>'
'<'
'#'
