'<pad>_'
'<EOS>_'
', _'
'the_'
'._'
'of_'
'to_'
'and_'
's_'
'_'
'in_'
'a_'
'that_'
'is_'
'-_'
'’_'
'for_'
' – _'
'on_'
'be_'
'The_'
'as_'
'are_'
'it_'
'with_'
'ing_'
'ed_'
'not_'
'by_'
'has_'
'have_'
'will_'
'from_'
'its_'
'd_'
'their_'
'an_'
'more_'
'or_'
'But_'
'was_'
'would_'
' “_'
'at_'
'e_'
'this_'
'US_'
'they_'
'which_'
'than_'
'y_'
'countries_'
'In_'
'China_'
'can_'
'but_'
'world_'
't_'
'es_'
' (_'
'been_'
'economic_'
'all_'
'one_'
'government_'
'only_'
'new_'
'ly_'
'” _'
'also_'
'should_'
'growth_'
'other_'
'his_'
'we_'
'% _'
'about_'
'global_'
'political_'
'could_'
'no_'
'Europe_'
'who_'
'such_'
'most_'
': _'
'people_'
'; _'
'country_'
'if_'
'were_'
'now_'
'even_'
'so_'
'ng_'
'years_'
'financial_'
'many_'
'European_'
'This_'
'n_'
'time_'
'there_'
'when_'
'some_'
'economy_'
'policy_'
'must_'
'’ _'
'do_'
'these_'
'It_'
'into_'
'what_'
'?_'
'out_'
'over_'
'may_'
'he_'
'up_'
'had_'
'much_'
'And_'
'al_'
'long_'
'them_'
'power_'
'like_'
') _'
'year_'
'crisis_'
'EU_'
'public_'
'United_'
'I_'
'market_'
'r_'
'.”_'
'er_'
'two_'
'because_'
'well_'
'international_'
'A_'
'between_'
'those_'
'America_'
'As_'
'less_'
'ion_'
'while_'
'first_'
'ation_'
'debt_'
'l_'
'need_'
'. _'
'able_'
'state_'
'way_'
'just_'
'any_'
'our_'
'how_'
'against_'
'both_'
'system_'
'For_'
'trade_'
'change_'
'term_'
'Russia_'
'leaders_'
'investment_'
'high_'
'far_'
'after_'
'banks_'
'us_'
'If_'
'too_'
'own_'
'rate_'
'make_'
'become_'
'example_'
'last_'
'interest_'
'markets_'
'governments_'
'support_'
' $_'
'where_'
'Japan_'
'national_'
'important_'
'President_'
'recent_'
'rates_'
'States_'
'military_'
'social_'
'policies_'
'1_'
'o_'
'war_'
'American_'
'Indeed_'
'foreign_'
'including_'
'India_'
'Chinese_'
'still_'
'being_'
'today_'
'future_'
'development_'
'rs_'
'same_'
'does_'
'current_'
'capital_'
',” _'
'real_'
'through_'
'large_'
'm_'
'economies_'
've_'
'That_'
'Iran_'
'nuclear_'
'since_'
'use_'
'ment_'
'right_'
'GDP_'
'end_'
'Germany_'
'energy_'
'ers_'
'likely_'
'health_'
'risk_'
'might_'
'work_'
'security_'
'2_'
'tax_'
'led_'
'income_'
'made_'
'take_'
'fiscal_'
'prices_'
'major_'
'ce_'
'billion_'
'without_'
'low_'
'already_'
'better_'
'under_'
')._'
'good_'
'problem_'
'5_'
'), _'
'fact_'
'did_'
'result_'
'states_'
'Trump_'
'demand_'
'then_'
'down_'
'tion_'
'often_'
'ts_'
'central_'
'cannot_'
'very_'
'help_'
'Israel_'
'ry_'
'part_'
'3_'
'another_'
'There_'
'They_'
'Bank_'
'oil_'
'private_'
'course_'
'among_'
'three_'
'So_'
'We_'
'Asia_'
'ies_'
'st_'
'region_'
'institutions_'
'order_'
'climate_'
'sector_'
'To_'
'human_'
'Obama_'
'East_'
'before_'
'million_'
'ted_'
'eurozone_'
'money_'
'i_'
'rather_'
'Moreover_'
'monetary_'
'increase_'
'role_'
'Union_'
'around_'
'back_'
',_'
'least_'
'higher_'
'past_'
'South_'
'g_'
'World_'
'ble_'
'needed_'
'ty_'
'little_'
'whether_'
'based_'
'companies_'
'inflation_'
'few_'
'case_'
'next_'
''_'
'developing_'
'problems_'
'approach_'
'4_'
'needs_'
'especially_'
'ting_'
'short_'
'nt_'
'ous_'
'Africa_'
'spending_'
'process_'
'democracy_'
'labor_'
'ons_'
'price_'
'education_'
'toward_'
'clear_'
'rise_'
'k_'
'reform_'
'called_'
'7_'
'remains_'
'France_'
'ic_'
'With_'
'why_'
'At_'
'te_'
'point_'
'Korea_'
'come_'
'off_'
'Iraq_'
'8_'
'free_'
'during_'
'When_'
'emerging_'
'strong_'
'h_'
'domestic_'
'decades_'
'means_'
'c_'
'E'
'longer_'
'reforms_'
'century_'
'election_'
'A'
'growing_'
'costs_'
'business_'
'rights_'
'further_'
'efforts_'
'North_'
'level_'
'continue_'
'others_'
'however_'
'almost_'
'different_'
'6_'
'cost_'
'given_'
'currency_'
'women_'
'20_'
'West_'
'ago_'
'her_'
'best_'
'seems_'
'ally_'
'you_'
'remain_'
'citizens_'
'One_'
'within_'
'ive_'
'I'
'key_'
'control_'
'poor_'
'yet_'
'potential_'
'making_'
'bank_'
'population_'
'members_'
'non_'
'used_'
'increasingly_'
'difficult_'
'benefits_'
'set_'
'000_'
'provide_'
'particularly_'
'agreement_'
'put_'
'life_'
'enough_'
'never_'
'go_'
'per_'
'le_'
'place_'
'itself_'
'Middle_'
'peace_'
'exchange_'
'question_'
'law_'
'nce_'
'regional_'
'P'
'care_'
'though_'
'services_'
'age_'
'Greece_'
'greater_'
'regime_'
'While_'
'Yet_'
'interests_'
'workers_'
'politics_'
'ors_'
'resources_'
'Turkey_'
'share_'
'number_'
'terms_'
'left_'
'What_'
'recently_'
'By_'
'After_'
'children_'
'ions_'
'second_'
'say_'
'These_'
'force_'
'p_'
'face_'
'small_'
'society_'
'thus_'
'S'
'ments_'
'value_'
'every_'
'each_'
'Arab_'
'Western_'
'G'
'War_'
'effective_'
'O'
'ever_'
'reduce_'
'run_'
'democratic_'
'possible_'
'impact_'
'2008_'
'history_'
'action_'
'former_'
'lower_'
'reason_'
'conflict_'
'local_'
'ity_'
'Syria_'
'member_'
'risks_'
'9_'
'progress_'
'stability_'
'infrastructure_'
'forces_'
'half_'
'man_'
'euro_'
'get_'
'de_'
'sense_'
'sm_'
'him_'
'view_'
'strategy_'
'common_'
'issues_'
'day_'
'jobs_'
'0_'
'old_'
'lead_'
'access_'
'want_'
'again_'
'great_'
'challenges_'
'create_'
'once_'
'Even_'
'ying_'
'themselves_'
'know_'
'investors_'
're_'
', “_'
'hard_'
'serious_'
'president_'
'On_'
'rising_'
'ism_'
'my_'
'leadership_'
'finance_'
'ent_'
'ate_'
'see_'
'French_'
'research_'
'unemployment_'
'believe_'
'New_'
'early_'
'credit_'
'party_'
'levels_'
'administration_'
'dollar_'
'community_'
'together_'
'rules_'
'Minister_'
'account_'
'employment_'
'decision_'
'UN_'
'significant_'
'balance_'
'anti_'
'technology_'
'British_'
'red_'
'th_'
'Bush_'
'ness_'
'home_'
'Putin_'
'German_'
'poverty_'
'measures_'
'issue_'
'T'
'program_'
'ensure_'
'times_'
'simply_'
'ding_'
'Russian_'
'find_'
'challenge_'
'C'
'data_'
'increased_'
'cy_'
'pay_'
'Of_'
'rule_'
'decade_'
'across_'
'turn_'
'deal_'
'International_'
'five_'
'U'
'full_'
'developed_'
'always_'
'Ukraine_'
'self_'
'Britain_'
'systems_'
'require_'
'ings_'
'IMF_'
'ties_'
'true_'
'address_'
'similar_'
'information_'
'budget_'
'seem_'
'ling_'
'threat_'
'open_'
'largest_'
'despite_'
'fall_'
'Some_'
'Party_'
'pre'
'ure_'
'success_'
'leading_'
'ways_'
'water_'
'parties_'
'3'
'He_'
'land_'
'lack_'
'response_'
'ful_'
'ability_'
'Pakistan_'
'ations_'
'Americans_'
'Fed_'
'areas_'
'opportunity_'
'conditions_'
'advanced_'
'food_'
'big_'
'model_'
'third_'
'move_'
'done_'
'deficit_'
'consumption_'
'firms_'
'M'
'groups_'
'Central_'
'50_'
'officials_'
'weapons_'
'said_'
'ne_'
'Le'
'pressure_'
'R'
'campaign_'
'average_'
'whose_'
'productivity_'
'position_'
'gas_'
'start_'
'hope_'
'assets_'
'side_'
'consequences_'
'post_'
'young_'
'production_'
'effects_'
'working_'
'supply_'
'owing_'
'rich_'
'focus_'
'se_'
'Council_'
'until_'
'effort_'
'return_'
'gi'
'politicians_'
'taking_'
'ls_'
'taken_'
'banking_'
'requires_'
'UK_'
'aid_'
'cooperation_'
'ze_'
'line_'
'10_'
'single_'
'ds_'
'civil_'
'several_'
'si'
'Prime_'
'failed_'
'months_'
'changes_'
'top_'
'mo'
'strategic_'
'scale_'
'cause_'
'largely_'
'created_'
'main_'
'ance_'
'structural_'
'Japanese_'
'majority_'
'act_'
'Asian_'
'ns_'
'emissions_'
'away_'
'Such_'
'powerful_'
'N'
'influence_'
'Many_'
'form_'
'under'
'policymakers_'
'opposition_'
'lly_'
'four_'
'leader_'
'Egypt_'
'zed_'
'rest_'
'voters_'
'wealth_'
'annual_'
'me_'
'group_'
'debate_'
'Islamic_'
'beyond_'
'ary_'
'Palestinian_'
'massive_'
'alone_'
'Today_'
'programs_'
'capacity_'
'ro'
'violence_'
'co'
'relations_'
'natural_'
'ated_'
'Pro'
'perhaps_'
'P_'
'Fund_'
'period_'
'media_'
'industry_'
'ECB_'
'prevent_'
'30_'
'tic_'
'goods_'
'expected_'
'Do'
'lu'
'funds_'
'necessary_'
'Nations_'
'benefit_'
'think_'
'hi'
'late_'
'C_'
'x_'
'job_'
'w_'
'Given_'
'bring_'
'having_'
'failure_'
'shift_'
'increasing_'
'found_'
'est_'
'makes_'
'Ta'
'lives_'
'bonds_'
'idea_'
'Sa'
'wa'
'decline_'
'sustainable_'
'sta'
'achieve_'
'particular_'
'lost_'
'%._'
'close_'
'official_'
'carbon_'
'began_'
'fully_'
'Italy_'
'plan_'
'give_'
'she_'
'play_'
'governance_'
'u_'
'elections_'
'exports_'
'K'
'Afghanistan_'
'bad_'
'seen_'
'Me'
'se'
'inter'
'fear_'
'modern_'
'G_'
'2010_'
'ter_'
'men_'
'inequality_'
'ru'
'doing_'
'ck_'
'economists_'
'sts_'
'so'
'keep_'
'To'
'nearly_'
'globalization_'
'negotiations_'
'later_'
'recovery_'
'look_'
'using_'
'month_'
'Brazil_'
'“_'
'sure_'
'solution_'
'taxes_'
'innovation_'
'Instead_'
'improve_'
'kind_'
'either_'
'ian_'
'evidence_'
'mis'
'news_'
'wi'
'hold_'
'environment_'
'Soviet_'
'agenda_'
'Muslim_'
'tra'
'build_'
'became_'
'corruption_'
'coming_'
'middle_'
'effect_'
'comes_'
'allow_'
'ves_'
'known_'
'Ra'
'First_'
'experience_'
'union_'
'total_'
'something_'
'living_'
'4'
'huge_'
'ni'
'really_'
'behind_'
'nothing_'
'ia_'
'powers_'
'legal_'
'More_'
'y'
'vote_'
'things_'
'highly_'
'Israeli_'
'authorities_'
'Kingdom_'
'di'
'15_'
'probably_'
'presidential_'
'Saudi_'
'trillion_'
'gra'
'step_'
'Li'
'um_'
'values_'
'report_'
'held_'
'popular_'
'ge_'
'avoid_'
'State_'
'Congress_'
'opportunities_'
'S_'
'D'
'All_'
'defense_'
' _'
'situation_'
'environmental_'
'traditional_'
'integration_'
'ring_'
'rapid_'
'over'
'gh'
'Now_'
'%, _'
'investments_'
'live_'
'cases_'
'reach_'
'class_'
'contrast_'
'Commission_'
'protect_'
'fundamental_'
'cut_'
'collapse_'
'5'
'goal_'
'cities_'
'na'
'recession_'
'reality_'
'indeed_'
'fa'
'hand_'
'took_'
'ss_'
'thing_'
'actually_'
'deficits_'
'larger_'
'matter_'
'ist_'
'call_'
'boost_'
'corporate_'
'status_'
'following_'
'Security_'
'B'
'ar'
'worse_'
'building_'
'limited_'
'II_'
'vo'
'L'
'n'
'ten_'
'Re'
'La'
'individual_'
';_'
'cally_'
'attention_'
'2009_'
'successful_'
'confidence_'
'le'
'ver_'
'en_'
'ms_'
'include_'
'asset_'
'Ro'
'Bo'
'2015_'
'ization_'
'ied_'
'border_'
'Na'
'reducing_'
'dis'
'behavior_'
'critical_'
'understand_'
'T_'
' '
'relatively_'
'Ma'
'40_'
'wrong_'
'outcome_'
'established_'
'days_'
'lo'
'According_'
'soon_'
'standards_'
'el_'
'African_'
'fi'
'1'
'concerns_'
'minister_'
'forward_'
'D_'
'Latin_'
'/_'
'religious_'
'stock_'
'stop_'
'mean_'
'sh_'
'movement_'
'quickly_'
'words_'
'bi'
'competition_'
'quality_'
'ship_'
'results_'
'decisions_'
'ating_'
'tri'
'produce_'
'freedom_'
'il_'
'easy_'
'F'
'direct_'
'unlikely_'
'financing_'
'NEW_'
'Mar'
'ably_'
'responsibility_'
'export_'
'commitment_'
'came_'
'to'
'certainly_'
'attacks_'
'National_'
'relationship_'
'out'
'city_'
'” – _'
'ning_'
'meeting_'
'ely_'
'NATO_'
'Mexico_'
'industrial_'
'era_'
'Mo'
'creating_'
'refugees_'
'Development_'
'king_'
'develop_'
'caused_'
'ber'
'cuts_'
'sho'
'ai'
'Spain_'
'ke'
'above_'
'ab'
'meet_'
'ical_'
'general_'
'fight_'
'Barack_'
'show_'
'Greek_'
've'
'currently_'
'along_'
'near_'
'intervention_'
'technologies_'
'Ka'
'external_'
'Europeans_'
'deep_'
'Since_'
'Most_'
'projects_'
'becoming_'
'Mu'
'2012_'
'2'
'offer_'
'don_'
'beginning_'
'worldwide_'
'Te'
'weak_'
'reserves_'
'Pa'
'th'
'management_'
'gar'
'ea'
'path_'
'elsewhere_'
'Se'
'millions_'
'No_'
'2011_'
'l'
'Internet_'
'roughly_'
'products_'
'ar_'
'at'
'entire_'
'net_'
'dangerous_'
'Great_'
'recognize_'
'po'
'for'
'reasons_'
'pa'
'ant_'
'100_'
'clearly_'
'man'
'won_'
'sanctions_'
'performance_'
'Ho'
'Although_'
'et_'
'relative_'
'continued_'
'lt'
'per'
'independence_'
'in'
'ded_'
'basic_'
'am_'
'he'
'below_'
'Ba'
'austerity_'
'sovereign_'
'1990_'
'negative_'
'Ne'
'helped_'
'flows_'
'certain_'
'brought_'
'alternative_'
'6'
'Ha'
'En'
'7'
'ory_'
'family_'
'air_'
'Monetary_'
'maintain_'
'u'
'outside_'
'25_'
'organizations_'
'existing_'
'accept_'
'p'
'generation_'
'everyone_'
'positive_'
'disease_'
'Ar'
'2013_'
'raise_'
'insurance_'
'knowledge_'
'ious_'
'creation_'
'source_'
'prime_'
'stimulus_'
'essential_'
'160_'
'forced_'
'Su'
'according_'
'moral_'
'choice_'
'consider_'
'basis_'
'proposed_'
'ks_'
'company_'
'victory_'
'center_'
'amount_'
'Po'
'complex_'
'allowed_'
'Global_'
'thereby_'
'required_'
'science_'
'trans'
'is'
'ed'
'output_'
'claim_'
'businesses_'
'death_'
'air'
'liberal_'
'al'
'on'
'en'
'Republican_'
'z_'
'six_'
'du'
'Arabia_'
'prosperity_'
'ha'
'ized_'
'factors_'
'crises_'
'allies_'
'or'
'answer_'
'size_'
'Indian_'
'framework_'
'continues_'
'available_'
'Economic_'
'ina'
'Meanwhile_'
'leave_'
'ground_'
'revolution_'
'provided_'
'funding_'
'ch_'
'cal_'
'ria'
'independent_'
'economics_'
'attack_'
'da'
'September_'
'terrorism_'
'individuals_'
'bly_'
'Second_'
'2014_'
'ori'
'mon'
'ility_'
'stu'
'rapidly_'
'li'
'go'
'additional_'
': “_'
'saving_'
'fuel_'
'gains_'
'target_'
'ja'
'personal_'
'ically_'
'How_'
't'
'Lo'
'service_'
'ie'
'Al'
'savings_'
'ial_'
'9'
'2007_'
'instead_'
'ig'
'elected_'
'concern_'
'be'
'Federal_'
'societies_'
'ked_'
'here_'
'Hamas_'
'office_'
'ping_'
'ca'
'ti'
'agreed_'
'damage_'
'0'
'argue_'
'project_'
'tro'
'bri'
'technological_'
'mar'
'loss_'
'b_'
'willing_'
'eventually_'
'aimed_'
'Di'
'sse'
'school_'
'An_'
'rec'
'incentives_'
'transition_'
'simple_'
'thought_'
'advantage_'
'So'
'ur'
'ta'
'related_'
'reduction_'
'let_'
'internal_'
'questions_'
'points_'
'ma'
'Unfortunately_'
'thinking_'
'zero_'
'protection_'
'households_'
'dep'
'ne'
'f_'
'Car'
'gain_'
'fe'
'solutions_'
'record_'
'increases_'
'effectively_'
'sha'
'sa'
'facing_'
'pp'
'Finally_'
'wages_'
'De'
'60_'
'ahead_'
'ging_'
'tions_'
'overall_'
'nation_'
'grow_'
'ght_'
'claims_'
'turned_'
'talks_'
'sub'
'reduced_'
'appears_'
'ul'
'driven_'
'Ga'
'nor_'
'equity_'
'area_'
'activities_'
'stronger_'
'ged_'
'follow_'
'ct_'
'crucial_'
'wing_'
'loans_'
'impossible_'
'ci'
'burden_'
'borders_'
'vision_'
'reached_'
'pan'
'zation_'
'w'
'Brexit_'
'housing_'
'Despite_'
'regulation_'
'providing_'
'pro'
'ess_'
'drug_'
'consensus_'
'widely_'
'institutional_'
'bo'
'ideas_'
'culture_'
'obvious_'
'er'
'Pri'
'zing_'
'tes_'
'shed_'
'seeking_'
'shared_'
'diplomatic_'
'Secretary_'
'General_'
'trust_'
'partners_'
'moment_'
'dollars_'
'body_'
'authority_'
'Go'
'ma_'
'R_'
'ug'
'slow_'
'losses_'
'federal_'
'expect_'
'communities_'
' - _'
'stable_'
'sectors_'
'nts_'
'matters_'
'fail_'
'rea'
'whole_'
'wage_'
'sides_'
'directly_'
'Clinton_'
'politically_'
'competitive_'
'goals_'
'les_'
'Palestinians_'
'nature_'
'seek_'
'cultural_'
'we'
'suggests_'
'study_'
'neighbors_'
'ho'
'going_'
'events_'
'qui'
'industries_'
'liquidity_'
'gs_'
'lea'
'ine'
'followed_'
'es'
'11_'
'win_'
'understanding_'
'ret'
'mass_'
'Da'
'sion_'
'int'
'et'
'consumers_'
'not'
'extreme_'
'Likewise_'
'trying_'
'regions_'
'wide_'
'te'
'skills_'
'previous_'
'significantly_'
'8'
'ld'
'consumer_'
'parts_'
'gap_'
'feel_'
'ultimately_'
'establish_'
'responsible_'
'throughout_'
'respect_'
'dro'
'Reserve_'
'see'
'core_'
'terrorist_'
'manufacturing_'
'begin_'
'ke_'
'child_'
'wants_'
'property_'
'primary_'
'lines_'
'difference_'
'chance_'
'agreements_'
'gu'
'con'
'che'
'welfare_'
'warming_'
'steps_'
'stri'
'game_'
'cru'
'paid_'
'ou'
'expansion_'
'har'
'Syrian_'
'Ki'
'easily_'
'Only_'
'Lebanon_'
'Jo'
'seemed_'
'plans_'
'el'
'People_'
'tan'
'space_'
'ga'
'ce'
'Korean_'
'ther_'
'spe'
'focused_'
'committed_'
'try_'
'fer'
'actions_'
'vely_'
'renminbi_'
'From_'
'12_'
'nbsp_'
'ians_'
'ff_'
'treatment_'
'.'
'son_'
'pursue_'
'ol'
'book_'
'YORK_'
'unt'
'ncy_'
'ba'
'agree_'
'uses_'
'argued_'
'contrary_'
'a'
'pen'
'direction_'
'ch'
'Assad_'
'sometimes_'
'ving_'
'provides_'
'importance_'
'produced_'
'den'
'argument_'
'Though_'
'rr'
'pre_'
'extent_'
'cu'
'bilateral_'
'Trade_'
'Paris_'
'summit_'
'vulnerable_'
'strengthen_'
'save_'
'rid'
'mor'
'ck'
'lose_'
'lending_'
'historical_'
'your_'
'ya'
'vital_'
'legitimacy_'
'assistance_'
'December_'
'tu'
'promote_'
'pho'
'excessive_'
'pro_'
'sources_'
'op'
'ali'
'ad'
'Similarly_'
'Not_'
'May_'
'vast_'
'su'
'ia'
'demands_'
'sur'
'soft_'
'Co'
'scientific_'
'encourage_'
'ans_'
'(_'
'takes_'
'bio'
'Islam_'
'reg'
'November_'
'subsidies_'
'ste'
'shows_'
'secure_'
'quarter_'
'ki'
'implement_'
'au'
'anything_'
'targets_'
'substantial_'
'reflects_'
'mer'
'surplus_'
'immediate_'
'falling_'
'competitiveness_'
'We'
'wars_'
'partly_'
'la'
'Ni'
'Iranian_'
'students_'
'head_'
'disc'
'invest_'
'hin'
'faster_'
'ct'
'compared_'
'Ge'
'limits_'
'Thus_'
'Si'
'trend_'
'story_'
'principle_'
'coalition_'
'regulatory_'
'back'
'2000_'
'worth_'
'ssi'
'neither_'
'models_'
'Why_'
'Hi'
'George_'
'serve_'
'regard_'
'creditors_'
'ban'
'push_'
'od'
'oc'
'efficient_'
'ces_'
'Hu'
'merely_'
'dra'
'Be'
'expectations_'
'Xi_'
'lies_'
'buy_'
'standard_'
'Fi'
'overs'
'inf'
'dia'
'whom_'
'rt'
'pri'
'faces_'
'adopted_'
'prospects_'
'no'
'latest_'
'ges_'
'Its_'
'ge'
'biggest_'
'und'
're'
'ny_'
'Perhaps_'
'una'
'it'
'ement_'
'earlier_'
'changed_'
'built_'
'H'
'xi'
'sla'
'oni'
'announced_'
'2005_'
'reflect_'
'F_'
'spread_'
'safety_'
'safe_'
'option_'
'ming_'
'finally_'
'Bi'
'uncertainty_'
'threats_'
'sh'
'principles_'
'manage_'
'Fe'
'trading_'
'therefore_'
'super'
'shown_'
'managed_'
'ag'
'No'
'IC'
'test_'
'special_'
'normal_'
'becomes_'
'hand'
'fast_'
'ster'
'san'
'reaching_'
'pu'
'J'
'theory_'
'referendum_'
'poli'
'abroad_'
'O_'
'N_'
'His_'
'doubt_'
'ngs_'
'immigration_'
'1980_'
'various_'
'specific_'
'range_'
'calls_'
'W_'
'Cha'
'196'
'standing_'
'ssion_'
'severe_'
'profits_'
'membership_'
'Ab'
' _'
'ously_'
'else_'
'due_'
'broad_'
'Libya_'
'House_'
'oi'
'ka'
'cs_'
'boom_'
'thousands_'
'favor_'
'ap'
'supported_'
'suggest_'
'hal'
'war'
'presidency_'
'ip'
'ingly_'
'happen_'
'gen'
'front_'
'fighting_'
'M_'
'une'
'speech_'
'respond_'
'ities_'
'fund_'
'bility_'
'mu'
'himself_'
'achieved_'
'Republicans_'
'Or'
'ps_'
'bu'
'Poland_'
'Cold_'
'drugs_'
'York_'
'Donald_'
'2001_'
'tend_'
'ready_'
'gri'
'dit'
'commercial_'
'accounts_'
'Bu'
'ut'
'unable_'
'training_'
'cri'
'sovereignty_'
'bet'
'Con'
'Abe_'
'#_'
'wea'
'commodity_'
'started_'
'len'
'incomes_'
'W'
'Both_'
'spend_'
'rge'
'police_'
'macroeconomic_'
'limit_'
'giving_'
'truth_'
'nu'
'anti'
'promise_'
'deliver_'
'appear_'
'V'
'Pacific_'
'70_'
'went_'
'week_'
'estimated_'
'enable_'
'cash_'
'198'
'running_'
'rd'
'que'
'ned_'
'laws_'
'works_'
'spent_'
'ran'
'll_'
'initiative_'
'designed_'
'Consider_'
'tools_'
'ter'
'pla'
'London_'
'easing_'
'd'
'abs'
'Treaty_'
'Gaza_'
'shi'
'end'
'zi'
'st'
'precisely_'
'medical_'
'ade'
'- _'
'widespread_'
'rn'
'inc'
'fore'
'ei'
'struggle_'
'diseases_'
'candidates_'
'treaty_'
'exa'
'efficiency_'
'Muslims_'
'Man'
'Last_'
'Fu'
'ua'
'resulting_'
'o'
'ered_'
'sti'
'pped_'
'Their_'
'differences_'
'dev'
'Ri'
'ture_'
'changing_'
'car'
'June_'
'structure_'
'sal'
'killed_'
'intelligence_'
'base_'
'addition_'
'tru'
'nations_'
'circumstances_'
'attempt_'
'B_'
'sto'
'enormous_'
'causes_'
'bar'
'Mi'
'payments_'
'lot_'
'Eastern_'
'stand_'
'happened_'
'bra'
'John_'
' €_'
'operations_'
'nk'
'mostly_'
'establishment_'
'ended_'
'context_'
'18'
'worst_'
'urban_'
'sin'
'izing_'
'improved_'
'radical_'
'cap'
'absence_'
'ue'
'opinion_'
'migration_'
'ju'
'jo'
'collective_'
'um'
'schools_'
'raising_'
'possibility_'
'drive_'
'ard'
'launched_'
'hol'
'fair_'
'currencies_'
'University_'
'2006_'
'ra'
'populist_'
'ethnic_'
'considered_'
'coal_'
'aging_'
'Because_'
'z'
'rural_'
'prove_'
'message_'
'life'
'highest_'
'armed_'
'leaving_'
'construction_'
'Those_'
'permanent_'
'activity_'
'Un'
'cre'
'continent_'
'camp'
'army_'
'.)_'
'&_'
'ws_'
'received_'
'promises_'
'household_'
'hit_'
'est'
'da_'
'LONDON_'
'stage_'
'rest'
'productive_'
'nd_'
'des_'
'asked_'
'Organization_'
'Democratic_'
'197'
'ng'
'fossil_'
'ence_'
'depends_'
'Sch'
'ue_'
'revenue_'
'justice_'
'i'
'fell_'
'closer_'
'tried_'
'lity_'
'expe'
'exc'
'considerable_'
'broader_'
'Fa'
'Another_'
'ratio_'
'press_'
'final_'
'families_'
'capita_'
'bankers_'
'active_'
'ing'
'der_'
'deeply_'
'appro'
'anyone_'
'Merkel_'
'worked_'
'ide'
'associated_'
'Sunni_'
'us'
'table_'
'post'
'ri'
'revenues_'
'ics_'
'ici'
'edi'
'der'
'conflicts_'
'ati'
'Argentina_'
'ward_'
'views_'
'ren'
'present_'
'co_'
'cing_'
'ye'
'va'
'places_'
'helping_'
'cha'
'nic'
'nge'
'legislation_'
'ent'
'danger_'
'borrowing_'
'Al_'
'un'
'sustained_'
'subject_'
'resistance_'
'emi'
'" _'
'returns_'
'mber'
'disaster_'
'usually_'
'owned_'
'hundreds_'
'farmers_'
'depend_'
'democracies_'
'multilateral_'
'identity_'
'house_'
'hands_'
'han'
'goes_'
'ari'
'uns'
'sn'
'rupt'
'mp'
'ensuring_'
'cur'
'imports_'
'factor_'
'succeed_'
'remained_'
'light_'
'ji'
'involved_'
'ier_'
'cor'
'Washington_'
'smaller_'
'rm'
'lan'
'ists_'
'instability_'
'an'
'generally_'
'comprehensive_'
'uni'
'settle'
'person_'
'everything_'
'economist_'
'bel'
'am'
'Per'
'task_'
'prevail'
'mil'
'bas'
'ast'
'sit'
'rt_'
'name_'
'lar'
'break_'
'Ke'
'swi'
'nde'
'hen'
'ert'
'disp'
'80_'
'raised_'
'ize_'
'agencies_'
'Ya'
'DC_'
'the'
'let'
'ill_'
'equal_'
'entirely_'
'allowing_'
'unprecedented_'
'regulations_'
'pi'
'learn_'
'eri'
'Res'
'Over_'
'wor'
'upon_'
's'
'faced_'
'He'
'ref'
'rc'
'outcomes_'
'heart_'
'emerged_'
'de'
'xe'
'spi'
'onal_'
'mind_'
'electoral_'
'declared_'
'controls_'
'candidate_'
'Vi'
'troops_'
'moving_'
'list_'
'sufficient_'
'percentage_'
'para'
'hi_'
'During_'
'ders_'
'credibility_'
'capitalism_'
'weeks_'
'she'
'organization_'
'default_'
'chi'
'cancer_'
'recognized_'
'choose_'
'bond_'
'pping_'
'os_'
'getting_'
'eg'
'as'
'Is_'
'unless_'
'sought_'
'room_'
'rely_'
'par'
'cle'
'ana'
'added_'
'ten'
'suffering_'
'io'
'ative_'
'July_'
'Ja'
'tensions_'
'supposed_'
'peri'
'mb'
'mainly_'
'”'
'ongoing_'
'nch'
'mini'
'mental_'
'green_'
'gold_'
'contain'
'Pi'
'tou'
'receive_'
'greatest_'
'Wa'
'sharing_'
'road_'
'quite_'
'ov'
'migrants_'
'Sta'
'Lu'
'oo'
'b'
'ama'
'agricultural_'
'Revolution_'
'Islamist_'
'pace_'
'overcome_'
'met_'
'intellectual_'
'highlight'
'fo'
'dri'
'conference_'
'ron'
'ptions_'
'ger_'
'ending_'
'awa'
'undermine_'
'ses_'
'sed_'
'ine_'
'hu'
'expand_'
'estate_'
'style_'
'sound_'
'sli'
'ric'
'ku'
'generate_'
'counter_'
'ures_'
'tt'
'rs'
'populations_'
'ple'
'keeping_'
'ght'
'contribute_'
'ual_'
'stands_'
'ser'
'potentially_'
'participation_'
'implies_'
'forms_'
'bon'
'ac'
'2016_'
'193'
'watch'
'thi'
'regimes_'
'practice_'
'my'
'constitution_'
'arms_'
'ane'
'E_'
'told_'
'stic_'
'priority_'
'Kremlin_'
'ros'
'restore_'
'ore'
'offered_'
'min'
'improving_'
'imposed_'
'dar'
'conservative_'
'backed_'
'viewed_'
'qua'
'proposal_'
'practices_'
'og'
'lin'
'kin'
'fire_'
'dly_'
'barriers_'
'Financial_'
'za'
'violent_'
'tly_'
'mid_'
'head'
'hardly_'
'ages_'
'Rou'
'rhetoric_'
'initiatives_'
'hem'
'estimates_'
'den_'
'cons'
'played_'
'geopolitical_'
'explain_'
'diplomacy_'
'count'
'aries_'
'Then_'
' "_'
'transformation_'
'ration_'
'measure_'
'deaths_'
'tit'
'sp'
'scientists_'
'ped_'
'numbers_'
'exp'
'cutting_'
'cra'
'Rather_'
'January_'
'Court_'
'2004_'
'ordinary_'
'mir'
'lesson_'
'farm'
'experts_'
'supporters_'
'pay'
'fallen_'
'ep'
'digital_'
'afford_'
'Republic_'
'slowdown_'
'positions_'
'field_'
'disa'
'auto'
'alliance_'
'Sea_'
'strategies_'
'southern_'
'sk'
'resource_'
'medium_'
'implemented_'
'analysis_'
'universal_'
'sma'
'sing_'
'sharp_'
'otherwise_'
'decided_'
'commitments_'
'adjustment_'
'whatever_'
'tor'
'join_'
'cross_'
'conventional_'
'cal'
'Lea'
'Kim_'
'Ju'
'tom'
'ot'
'mat'
'g'
'dec'
'combined_'
'advance_'
'Str'
'CAMBRIDGE_'
'ruling_'
'name'
'ew'
'do'
'conce'
'yo'
'val'
'gone_'
'belief_'
'Ireland_'
'0s_'
'scenario_'
'eva'
'ver'
'ones_'
'mark_'
'fuels_'
'double_'
'debts_'
'ven'
'unc'
'type_'
'strength_'
'nar'
'gene'
'distribution_'
'deploy'
'brea'
'Chi'
'twentieth_'
'ist'
'ish_'
'includes_'
'ft_'
'Mil'
'Cu'
'sharply_'
'round_'
'movements_'
'foot'
'fears_'
'Our_'
'CO2_'
'mechanisms_'
'exploit'
'easier_'
'degree_'
'continuing_'
'ask_'
'ard_'
'actors_'
'vac'
'ic'
'hard'
'electricity_'
'des'
'appropriate_'
'March_'
'territory_'
'suit'
'nd'
'implications_'
'ational_'
'affairs_'
'Ru'
'Col'
'vie'
'sign_'
'cer'
'Y'
'zone_'
'work'
'suffer_'
'respect'
'planet_'
'options_'
'leverage_'
'cycle_'
'visit_'
'vers'
'resolution_'
'experienced_'
'can'
';&#_'
'wanted_'
'tur'
'refugee_'
'imbalances_'
'amounts_'
'Sc'
'saw_'
'patients_'
'free'
'Just_'
'ute'
'uc'
'lic'
'fan'
'driving_'
'aggregate_'
'199'
'proved_'
'nt'
'nom'
'holding_'
'everywhere_'
'defined_'
'assum'
'Hong_'
'talk_'
'pur'
'pti'
'me'
'learned_'
'deflation_'
'causing_'
'affected_'
'tive_'
'stem'
'reb'
'now'
'language_'
'ffe'
'cle_'
'affect_'
'vi'
'rati'
'expensive_'
'dom'
'Palestine_'
'protests_'
'men'
'inevitable_'
'Third_'
'Shia_'
'For'
'seven_'
'ort'
'ft'
'cts_'
'bubble_'
'Kong_'
'inclusive_'
'impose_'
'bat'
'October_'
'Nor_'
'Erdoğan_'
'up'
'combination_'
'CC'
'sustain_'
'product_'
'os'
'objectives_'
'gave_'
'ena'
'constitutional_'
'com'
'bal'
'reso'
'prospect_'
'ob'
'mus'
'hopes_'
'art_'
'Ca'
'resolve_'
'orm'
'ta_'
'reflected_'
'promised_'
'Os'
'Dis'
'ult'
'order'
'nationalism_'
'aba'
'Without_'
'Communist_'
'truly_'
'tin'
'rl'
'ol_'
'looking_'
'immigrants_'
'desire_'
'Sen'
'Climate_'
'500_'
'die'
'check'
'Pen'
'90_'
'regulators_'
'peaceful_'
'parliament_'
'nci'
'grown_'
'enterprises_'
'ele'
'drop_'
'det'
'Ji'
'Democrats_'
'ASEAN_'
'2003_'
'ual'
'towards_'
'ets_'
'eight_'
'bea'
'Two_'
'underlying_'
'parti'
'ins'
'Em'
'200_'
'virtually_'
'reas'
'iz'
'gui'
'fin'
'figure_'
'experiment'
'Sarkozy_'
'poorest_'
'physical_'
'perspective_'
'guarantee_'
'flow_'
'destruction_'
'corporations_'
'bit'
'agriculture_'
'senior_'
'sen'
'lati'
'fied_'
'ett'
'credible_'
'Tha'
'ris'
'ona'
'gan'
'ey_'
'cul'
'believed_'
'Turkish_'
'victims_'
'secular_'
'networks_'
'lling_'
'id_'
'f'
'declining_'
'ching_'
'carry_'
'c'
'ace'
'Ce'
'An'
'194'
'trends_'
'seriously_'
'pil'
'multi'
'ir'
'gue_'
'fat'
'elites_'
'Har'
'trade'
'prepared_'
'oli'
'obs'
'minority_'
'engage_'
'although_'
'é'
'ium_'
'choices_'
'v_'
'offers_'
'maintaining_'
'immediately_'
'heavily_'
'fair'
'dynamic_'
'developments_'
'Indonesia_'
'Bar'
'typically_'
'shape_'
'poll'
'om'
'ministers_'
'demo'
'authoritarian_'
'via_'
'ups'
'temporary_'
'mechanism_'
'determined_'
'18_'
'uri'
'urge'
'studies_'
'proposals_'
'profit_'
'outl'
'ls'
'k'
'generations_'
'Treasury_'
'Kh'
'Euro'
'Australia_'
'17_'
'pha'
'occurred_'
'objective_'
'ner_'
'mp_'
'elite_'
'X'
'Ser'
'Inter'
'quantitative_'
'ee'
'vil'
'hun'
'h'
'determine_'
'defeat_'
'cop'
'break'
'Taliban_'
'Pu'
'45_'
'whereas_'
'unp'
'ton_'
'tempt'
'ries_'
'rat'
'fueled_'
'bringing_'
'aim_'
'van'
'turning_'
'supporting_'
'sell_'
'mistake_'
'micro'
'insi'
'id'
'court_'
'conven'
'Other_'
'tent'
'pledge'
'persist'
'lessons_'
'hor'
'blame_'
'Ex'
'Dr'
'recommend'
'promoting_'
'mission_'
'intention'
'ines_'
'described_'
'dent'
'decide_'
'concerned_'
'cies_'
'Vietnam_'
'strengthening_'
'skeptic'
'restructuring_'
'rem'
'dy_'
'ble'
'Taiwan_'
'starting_'
'revi'
'lle'
'leads_'
'ers'
'ches_'
'bound_'
'addressing_'
'Jewish_'
'worry_'
'vin'
'ree'
'outs'
'ora'
'opponents_'
'expanding_'
'equivalent_'
'accord'
'paying_'
'opening_'
'mit'
'mal'
'mag'
'lai'
'bear_'
'accepted_'
'Venezuela_'
'Ko'
'In'
'Bal'
'stic'
'relief_'
'lla'
'lift'
'liberalization_'
'eng'
'ction_'
'clos'
'Will_'
'weight_'
'sive_'
'relevant_'
'ini'
'eno'
'economically_'
'diss'
'bla'
'unit'
'rti'
'rou'
'ra_'
'presence_'
'perceived_'
'illi'
'ani'
'af'
'playing_'
'exit_'
'divided_'
'crimes_'
'bes'
'ah_'
'stabiliz'
'represents_'
'rch'
'pal'
'ong'
'odi'
'northern_'
'looks_'
'dre'
'born_'
'assume_'
'1970_'
'useful_'
'heavy_'
'eu'
'discussion_'
'demonstrated_'
'clean_'
'block'
'Ku'
'wn_'
'willingness_'
'knows_'
'excess_'
'event_'
'cat'
'Wi'
'” (_'
'tting_'
'short'
'prof'
'ntly_'
'losing_'
'firm_'
'emp'
'deeper_'
'Ir'
'El'
'restrict'
'online_'
'equality_'
'diversity_'
'diagnos'
'cli'
'apparent_'
'Gu'
'Ban'
'wise_'
'stee'
'ole'
'ham'
'Ste'
'Parliament_'
'star'
'purpose_'
'exi'
'dramatically_'
'Vladimir_'
'summer_'
'rele'
'nationalist_'
'med_'
'lation_'
'compromise_'
'board_'
'Pe'
'13_'
'technical_'
'team_'
'stag'
'pursuing_'
'possibly_'
'permit'
'formal_'
'equally_'
'cla'
'boa'
'track_'
'meant_'
'leg'
'hours_'
'counter'
'territorial_'
'sel'
'nds_'
'll'
'inva'
'complete_'
'bottom_'
'unlike_'
'understood_'
'players_'
'issued_'
'gger'
'contributed_'
'Am'
'twenty_'
'solve_'
'figures_'
'controlled_'
'Like_'
'r'
'las'
'imper'
'genetic_'
'annually_'
'alle'
'Mari'
'HIV_'
'ym'
'tor_'
'pers'
'gained_'
'enc'
'dramatic_'
'trib'
'surprise_'
'sc'
'reported_'
'pit'
'occur_'
'nee'
'mari'
'lands'
'ide_'
'hy'
'compar'
'14_'
'teri'
'shocks_'
'parliamentary_'
'legitimate_'
'friends_'
'bou'
'Pre'
'August_'
'weigh'
'transparency_'
'signed_'
'represent_'
'intr'
'greenhouse_'
'gni'
'girls_'
'Zi'
'trouble_'
'sea_'
'robust_'
'relie'
'reali'
'que_'
'nec'
'extremely_'
'exactly_'
'chief_'
'begun_'
'Qaeda_'
'Ph'
'setting_'
'necessarily_'
'land'
'impl'
'healthy_'
'closely_'
'capable_'
'unre'
'showed_'
'processes_'
'pattern_'
'mean'
'lam'
'institution_'
'humanitarian_'
'eli'
'adopt_'
'unique_'
'religion_'
'promising_'
'passed_'
'partner_'
'ow_'
'illus'
'flu'
'del'
'Under_'
'pra'
'offs'
'moderate_'
'mention_'
'learning_'
'gender_'
'encouraging_'
'dependent_'
'ath'
'Or_'
'However_'
'Fortunately_'
'via'
'published_'
'observers_'
'mou'
'linked_'
'ko'
'kept_'
'civilian_'
'ava'
'arrangements_'
'Here_'
'Gulf_'
'16_'
'requirements_'
'impa'
'ida'
'ger'
'ez'
'ben'
'repu'
'olog'
'lig'
'genuine_'
'eti'
'demi'
'WASHINGTON_'
'Nobel_'
'Hol'
'Gua'
'Depression_'
'terrorists_'
'settlement_'
'rebel'
'her'
'exist_'
'discre'
'bail'
'alt'
'Sil'
'Health_'
'April_'
'unsustainable_'
'tie'
'subs'
'structures_'
'rant'
'none_'
'mid'
'mandate_'
'lli'
'ively_'
'intended_'
'critics_'
'cho'
'stra'
'rage'
'inde'
'forge'
'defend_'
'billions_'
'adv'
'reviv'
'recognition_'
'race_'
'opposite_'
'impr'
'happens_'
'employees_'
'ema'
'bor'
'ban_'
'ates_'
'sy'
'signs_'
'rein'
'producers_'
'priorities_'
'hel'
'gro'
'enta'
'SA'
'unity_'
'transfer_'
'survival_'
'served_'
'prom'
'pat'
'cel'
'CA'
'yi'
'urgent_'
'universities_'
'radical'
'putting_'
'ication_'
'host_'
'govern'
'geo'
'establishing_'
'aw'
'ambitious_'
'U_'
'Is'
'At'
'win'
'visit'
'nc'
'ka_'
'emerge_'
'achieving_'
'Comm'
'youth_'
'tain'
'punish'
'planning_'
'historic_'
'guid'
'criticism_'
'arrest'
'Social_'
'Mc'
'As'
') – _'
'unf'
'reve'
'reserve_'
'raci'
'la_'
'document'
'confirm'
'ced_'
'Z'
'AIDS_'
'time'
'slo'
'scope_'
'plants_'
'ok'
'ker_'
'ignor'
'flood'
'ero'
'constraints_'
'ake'
'ain'
'Yu'
'stem_'
'recip'
'react'
'rain'
'lou'
'invent'
'incentive_'
'hid'
'design_'
'analy'
'tre'
'tely_'
'rep'
'rap'
'pollution_'
'pic'
'nne'
'mobile_'
'fu'
'fewer_'
'attend'
'wr'
'uti'
'remaining_'
'purchases_'
'pon'
'pension_'
'paper_'
'moved_'
'ise_'
'fixed_'
'coo'
'shing_'
'rig'
'nti'
'launch_'
'ances_'
'adequate_'
'Reg'
'wave_'
'volatility_'
'surely_'
'says_'
'remarkable_'
'placed_'
'mark'
'included_'
'dominated_'
'centuries_'
'aged_'
'addressed_'
'TPP_'
'Italian_'
'Canada_'
'virtu'
'satisf'
'res'
'producing_'
'net'
'ion'
'inadequate_'
'employ'
'tun'
'pick'
'litera'
'ject'
'evi'
'defi'
'def'
'zo'
'stake_'
'resist'
'homes_'
'hing_'
'eo'
'emergence_'
'defend'
'dde'
'clu'
'chan'
'ann'
'Rece'
'Iraqi_'
'yield_'
'wind'
'varia'
'ther'
'ress'
'lag'
'hood_'
'gradually_'
'gather'
'enter'
'educated_'
'chair'
'but'
'OECD_'
'weakness_'
'starters_'
'rting_'
'reward'
'reports_'
'pt'
'prec'
'implementation_'
'essentially_'
'eas'
'compa'
'battle_'
'treat'
'profound_'
'meaning_'
'glo'
'flo'
'embrace_'
'ain_'
'Governments_'
'Georgia_'
'veri'
'ved_'
'surprising_'
'solidarity_'
'securities_'
'omin'
'oca'
'incomp'
'fur'
'educational_'
'dialogue_'
'Nor'
'Chile_'
'35_'
'ts'
'tors_'
'stance_'
'soar'
'risky_'
'object'
'ill'
'cro'
'concept_'
'app'
'ants_'
'Once_'
'NA'
'Committee_'
'Beijing_'
' ($_'
'votes_'
'regarded_'
'primarily_'
'ins_'
'fra'
'failing_'
'Ob'
'threatened_'
'targeted_'
'stagnation_'
'ord'
'joint_'
'explicit'
'essi'
'eliminate_'
'cate'
'borrow_'
'tough_'
'perce'
'ly'
'ents_'
'engagement_'
'enabled_'
'bil'
'acy_'
'Inf'
'thr'
'text'
'tari'
'syn'
'restrictions_'
'regardless_'
'pressures_'
'kers_'
'holds_'
'graph'
'found'
'exposed_'
'costly_'
'aggressive_'
'add_'
'BR'
'suffered_'
'stre'
'series_'
'ime'
'grew_'
'finding_'
'empower'
'cover'
'collecti'
'bul'
'boosting_'
'Sw'
'HA'
'wan'
'innovative_'
'identify_'
'crime_'
'concluded_'
'cation_'
'carried_'
'195'
'wake_'
'tic'
'ski'
'mount'
'investing_'
'introduced_'
'imagine_'
'dire'
'constitute'
'condemn'
'bill_'
'Va'
'Netanyahu_'
'vic'
'sustainability_'
'shock_'
'ort_'
'opposed_'
'nn'
'ken'
'ified_'
'ideological_'
'ator_'
'Wo'
'scar'
'rejected_'
'pol'
'legacy_'
'deter'
'deli'
'adapt'
'Rev'
'Foreign_'
'Che'
'unif'
'speak'
'sm'
'oriented_'
'ghte'
'find'
'Wall_'
'NP'
'Min'
'England_'
'Cameron_'
'speculati'
'roll'
'rican'
'pushed_'
'proliferation_'
'nsi'
'fate_'
'exceed'
'died_'
'compete_'
'ato'
'ass'
'Ei'
'terror_'
'manufacture'
'endo'
'die_'
'cover_'
'continu'
'approaches_'
'QE_'
'Bra'
'wider_'
'unde'
'teach'
'taxpayers_'
'strongly_'
'steri'
'sted_'
'reli'
'pres'
'pac'
'nta'
'gal'
'front'
'cheap_'
'calling_'
'arch'
'ambi'
'alist'
'San'
'Hezbollah_'
'Growth_'
'Chancellor_'
'ys'
'reveal'
'repeatedly_'
'modest_'
'mala'
'lock'
'loca'
'inti'
'heads_'
'exception_'
'engaged_'
'dy'
'contracts_'
'conservati'
'card'
'Paul_'
'wrote_'
'vent'
'ular_'
'tea'
'side'
'rel'
'less'
'ify'
'ib'
'hur'
'hear'
'gla'
'fini'
'endur'
'eh'
'ars'
'Still_'
'transfers_'
'sent_'
'rival'
'prohibit'
'one'
'express'
'ensi'
'elop'
'coin'
'capabilities_'
'Ac'
'woman_'
'someone_'
'protecting_'
'pred'
'pass_'
'newspaper'
'nationali'
'multi_'
'liti'
'integrated_'
'Investment_'
'Du'
'Defense_'
'David_'
'”)'
'wait_'
'ura'
'sch'
'prosecut'
'older_'
'mea'
'ima'
'financed_'
'ex'
'ese_'
'crowd'
'conducted_'
'Nigeria_'
'Ad'
'undermining_'
'temp'
'tell_'
'spa'
'sort_'
'sales_'
'rd_'
'proceed'
'philosoph'
'nes_'
'mere_'
'lit'
'disagree'
'cula'
'Fl'
'ull'
'pushing_'
'practical_'
'intensive_'
'ignore_'
'harm_'
'fe_'
'faith_'
'embar'
'2002_'
'word_'
'speak_'
'renewable_'
'reme'
'quo_'
'pull'
'our'
'infect'
'apply_'
'transactions_'
'humans_'
'felt_'
'ering_'
'emergency_'
'desc'
'az'
'ame'
'ak_'
'Until_'
'previously_'
'ons'
'obligations_'
'nineteenth_'
'lm'
'ica'
'cyber_'
'circu'
'Sim'
'February_'
'Egyptian_'
'withdraw'
'ty'
'transport_'
'spar'
'ounce'
'om_'
'oci'
'network_'
'ner'
'material_'
'ff'
'father_'
'dam'
'appreciation_'
'accompanied_'
'LA'
'Israelis_'
'Beyond_'
'xa'
'surr'
'suggested_'
'record'
'link_'
'different'
'viable_'
'pea'
'package_'
'failures_'
'earnings_'
'don'
'dictat'
'confront_'
'citizen'
'bot'
'Pakistani_'
'Jordan_'
'Gor'
'withdrawal_'
'temperature'
'replace_'
'preventing_'
'pass'
'oth'
'of'
'notably_'
'mist'
'fte'
'enjoy'
'discover'
'cy'
'completely_'
'charge_'
'biolog'
'bargain'
'aus'
'attractive_'
'arguments_'
'ang'
'aci'
'Ti'
'Sal'
'welcome_'
'supplies_'
'stay_'
'speed_'
'reasonable_'
'norms_'
'newly_'
'invasion_'
'home'
'exacerbate'
'enti'
'bear'
'bailout_'
'Ins'
'Imp'
'Frank'
'Fran'
'urn'
'tter'
'substantially_'
'oblig'
'line'
'killing_'
'ition_'
'fri'
'ens'
'elements_'
'closed_'
'burn'
'alike_'
'Yes_'
'My_'
'2030_'
'write_'
'uncertain_'
'strict'
'released_'
'latter_'
'frame'
'fal'
'ale'
'add'
'Singapore_'
'Shi'
'Inc'
'Emp'
'Comp'
'vat'
'tal_'
'sentiment_'
'mutual_'
'malaria_'
'destabiliz'
'cus'
'budgets_'
'acting_'
'accounting_'
'Sin'
'Jews_'
'H_'
'xis'
'turmoil_'
'predecessor'
'negotiat'
'mine'
'logic_'
'got_'
'favor'
'fac'
'effectiveness_'
'correct'
'bur'
'bubbles_'
'allows_'
'ak'
'Nonetheless_'
'xu'
'survive_'
'strate'
'sou'
'ro_'
'ral_'
'operate_'
'menta'
'hospital'
'eral'
'enhance_'
'dic'
'clo'
'aspect'
'acc'
'Mor'
'ys_'
'realize_'
'oti'
'gg'
'conf'
'cent'
'buying_'
'Sol'
'Shar'
'Countries_'
'weaker_'
'search_'
'prop'
'polls_'
'plo'
'parents_'
'occupation_'
'nk_'
'mba'
'ionary_'
'impli'
'functioning_'
'encou'
'disappear'
'depress'
'const'
'bill'
'acquire'
'Ag'
'2020_'
'wer'
'strain'
'organiz'
'mos'
'minimum_'
'mai'
'kl'
'humanity_'
'depression_'
'atic'
'adult'
'yl'
'transform'
'tical'
'tax'
'signal'
'regulate'
'physic'
'oned_'
'il'
'fish'
'ell'
'disputes_'
'depart'
'demonstrat'
'delivered_'
'criminal_'
'claimed_'
'bankruptcy_'
'ach'
'PE'
'Nat'
'Ant'
'300_'
'ze'
'witness'
'wind_'
'son'
'recover'
'ps'
'iron'
'fir'
'doesn_'
'dict'
'crat'
'bit_'
'acted_'
'acce'
'Partnership_'
'Cor'
'.&'
'threatening_'
'select'
'ption_'
'patent'
'miss'
'ind'
'immun'
'fl'
'expense_'
'celebrat'
'broke'
'all'
'Russians_'
'J_'
'Her'
'Assembly_'
'.  _'
','
'yn'
'uncon'
'statement_'
'rose_'
'roads_'
'owe'
'mate'
'inten'
'flexibility_'
'esti'
'dh'
'democrati'
'dan'
'contain_'
'bed_'
'tap'
'strike_'
'sav'
'offset_'
'mode'
'ient_'
'ible_'
'entail'
'enrich'
'engineering_'
'contributions_'
'communist_'
'cas'
'appoint'
'Plan_'
'Gre'
'Ben'
'undertake'
'sheet_'
'safeguard'
'receiv'
'prepar'
'na_'
'mm'
'meta'
'managers_'
'ld_'
'gy'
'governmental_'
'gas'
'fect'
'ek'
'UN'
'Pop'
'Mubarak_'
'AI'
' '
'winner'
'seemingly_'
'rv'
'ost'
'org'
'operating_'
'non'
'mas_'
'long'
'im'
'explanation_'
'eb'
'creates_'
'corre'
'attempts_'
'advances_'
'accomplish'
'Senate_'
'ound'
'm'
'lish'
'lack'
'generated_'
'formula'
'exce'
'ete'
'daily_'
'coup_'
'complain'
'attract_'
'asserti'
'any'
'Sweden_'
'Fre'
'Exp'
'vis_'
'spec'
'shareholders_'
'set'
'rit'
'rily_'
'rali'
'publicly_'
'media'
'mati'
'llen'
'factor'
'ately_'
'asi'
'Portugal_'
'Je'
'Fin'
'Act_'
'1990s_'
'é_'
'stor'
'site_'
'ruled_'
'rif'
'osi'
'ks'
'ko_'
'instruments_'
'inspir'
'induce'
'imagin'
'fragile_'
'doubl'
'consistent_'
'coast'
'arm'
'Yemen_'
'tele'
'slowly_'
'silen'
'pros'
'occasion'
'mortgage_'
'libert'
'ley_'
'ideology_'
'gives_'
'examples_'
'escape_'
'declined_'
'conten'
'conclusion_'
'bold_'
'Supreme_'
'Af'
'vir'
'tis'
'tests_'
'sole'
'quarters_'
'nine_'
'ngl'
'negotiating_'
'lie_'
'ht'
'fed'
'fear'
'elin'
'decisive_'
'comp'
'alarm'
'Qu'
'DP'
'Colombia_'
'. '
'·'
'village'
'uct'
'trial_'
'sting_'
'soldiers_'
'posed_'
'night_'
'negotiate_'
'mbi'
'lie'
'initial_'
'harder_'
'gan_'
'executive_'
'doubt'
'convinced_'
'cket'
'cc'
'boo'
'Cl'
'Christian_'
'transa'
'species_'
'sco'
'porat'
'nowadays_'
'mess'
'lower'
'logical_'
'kn'
'inflows_'
'facilitat'
'exemp'
'dismiss'
'coordination_'
'appeal_'
'ami'
'accus'
'Wil'
'Gi'
'Furthermore_'
'surpluses_'
'sea'
'reverse_'
'perv'
'lav'
'inevitably_'
'illegal_'
'headed_'
'grounds_'
'gam'
'epi'
'demonstrate_'
'contro'
'communications_'
'character'
'bull'
'align'
'Sha'
'Ot'
'Ol'
'worsen'
'users_'
'television_'
'solar_'
'saying_'
'res_'
'reaction_'
'ques_'
'pli'
'implementing_'
'enter_'
'corrupt_'
'cking_'
'bust'
'barely_'
'balanced_'
'Vo'
'Tu'
'May'
'Communi'
'xt'
'wealthy_'
'voting_'
'successfully_'
'ster_'
'repe'
'reflecti'
'pron'
'path'
'offering_'
'lect'
'joined_'
'ideal_'
'fica'
'export'
'exercise_'
'doo'
'contribution_'
'actual_'
'Lan'
'trea'
'separati'
'rival_'
'ras'
'olde'
'foo'
'dw'
'correct_'
'act'
'absorb'
'Street_'
'Soci'
'weaken_'
'warning_'
'voted_'
'usion'
'unch'
'tar'
'surprisingly_'
'slu'
'rin'
'rie'
'repres'
'prot'
'pose_'
'organized_'
'like'
'les'
'knew_'
'ite'
'height'
'fen'
'fee'
'extended_'
'esse'
'ently_'
'discussions_'
'devastating_'
'ded'
'confront'
'bureaucrat'
'antly_'
'Add'
'tali'
'subsequent_'
'possess'
'periphery_'
'marked_'
'irr'
'extra_'
'expressed_'
'ensu'
'demanding_'
'build'
'bran'
'bolster'
'Ze'
'Spring_'
'Keynes_'
'wo'
'widen'
'version_'
'undoubtedly_'
'total'
'threaten_'
'review_'
'researchers_'
'ownership_'
'nominal_'
'nel'
'nan'
'moral'
'ire'
'inju'
'import_'
'gras'
'enabling_'
'ee_'
'ched_'
'champion'
'ambitions_'
'White_'
'Med'
'Ind'
'Energy_'
'ure'
'types_'
'test'
'tan_'
'stress_'
'resulted_'
'missile_'
'ire_'
'interventions_'
'igat'
'horr'
'exte'
'engineer'
'down'
'dle'
'dead_'
'appe'
'Mon'
'Dec'
'California_'
'Cal'
'12'
'white_'
'variety_'
'ught'
'ud'
'tl'
'tation_'
'successor_'
'predict_'
'pes'
'mi'
'lac'
'fus'
'function_'
'computer_'
'commission'
'bs_'
'bli'
'ara'
'Market'
'Mac'
'revealed_'
'rese'
'redi'
'obtain'
'narrow_'
'nal_'
'lut'
'imit'
'iat'
'flexible_'
'expanded_'
'erg'
'dominant_'
'demographic_'
'customers_'
'contradict'
'conduct_'
'abo'
'Whether_'
'Tr'
'ME'
'Human_'
'vis'
'stated_'
'south_'
'ound_'
'narrative_'
'industrializ'
'eme'
'eld'
'Tunisia_'
'Pla'
'transparent_'
'sheets_'
'returned_'
'replaced_'
'renewed_'
'purchase_'
'professional_'
'painful_'
'nutrition_'
'merit'
'has'
'forecast'
'expecta'
'deva'
'counterparts_'
'channel'
'blood_'
'blood'
'arti'
'ampl'
'Ric'
'Kosovo_'
'24_'
'xim'
'ut_'
'usual_'
'ude'
'surg'
'suff'
'subsid'
'revolutionary_'
'protest_'
'occup'
'funded_'
'eth'
'consolidation_'
'centers_'
'bles_'
'Rep'
'Much_'
'tende'
'tac'
'systemic_'
'sites_'
'rulers_'
'ow'
'opened_'
'odox'
'nati'
'momentum_'
'med'
'inv'
'incon'
'happening_'
'gn'
'fundamentally_'
'dut'
'dog'
'deals_'
'dat'
'clear'
'bodies_'
'blu'
'badly_'
'acts_'
'Spanish_'
'Rom'
'MA'
'Bank'
'1960_'
'united_'
'trouble'
'taxation_'
'stati'
'start'
'rescue_'
'relationships_'
'rarely_'
'pens'
'partnership_'
'mic_'
'leaves_'
'date_'
'custom'
'ction'
'cautio'
'atr'
'assess'
'accountability_'
'Four'
'Department_'
'Can_'
'weakening_'
'vest'
'unions_'
'sor'
'shifting_'
'refer'
'reck'
'radi'
'quar'
'prov'
'port'
'peace'
'managing_'
'know'
'improvement_'
'impo'
'ific'
'ich'
'harm'
'diverse_'
'dispute_'
'cont'
'applied_'
'aggressi'
'War'
'Sm'
'Compa'
'%'
'traffic'
'stories_'
'shar'
'seize'
'row_'
'read_'
'phase_'
'passi'
'outs_'
'margin'
'isi'
'ional_'
'ily_'
'hat'
'frequently_'
'exclusive'
'ession_'
'concerning_'
'col'
'alter'
'Ang'
'ust_'
'tiny_'
'sub_'
'storm'
'spoke'
'refused_'
'ram'
'pher'
'pet'
'participants_'
'lacks_'
'itar'
'hegemon'
'hed_'
'globally_'
'divide_'
'dere'
'chronic_'
'charges_'
'brain_'
'benefi'
'22_'
' –'
'za_'
'weakened_'
'warned_'
'vig'
'versi'
'thirds_'
'obst'
'loose'
'insurgen'
'hn'
'hike'
'extend_'
'evol'
'ctua'
'condition_'
'comfort'
'bru'
'assessment_'
'adverse_'
'acqui'
'Trans'
'Sy'
'Nevertheless_'
'Netherlands_'
'Mah'
'Histor'
'Ale'
'1997_'
'yr'
'yields_'
'wisdom_'
'suppress'
'struggling_'
'rish'
'resi'
'reason'
'pot'
'piece'
'mistakes_'
'mainstream_'
'llo'
'lled_'
'irre'
'ially_'
'guarantees_'
'entitle'
'encouraged_'
'eat'
'distri'
'di_'
'cyclical_'
'cert'
'bro'
'appreciate'
'Thailand_'
'Germans_'
'Blair_'
'university_'
'twice_'
'respond'
'offic'
'ocean'
'nor'
'journalists_'
'image_'
'honor'
'facts_'
'eyes_'
'determin'
'decent'
'deadl'
'civilians_'
'books_'
'aut'
'appeal'
'academic_'
'Myanmar_'
'Far'
'Can'
'Bro'
'worth'
'vot'
'tter_'
'transmi'
'succ'
'rg'
'reta'
'pointed_'
'ment'
'lim'
'ir_'
'indi'
'habit'
'gree'
'fourth_'
'estimate_'
'em'
'disappoint'
'borrowers_'
'Sub'
'Kar'
'BO'
'Atlantic_'
'wild'
'swa'
'stopped_'
'smart_'
'simultaneously_'
'prote'
'progressive_'
'partisan_'
'olution'
'lo_'
'journal'
'innovations_'
'heal'
'facilities_'
'ened_'
'downward_'
'destroy_'
'criticize'
'approval_'
'Roman'
'Philippines_'
'Ira'
'Acc'
'weather_'
'valuable_'
'treated_'
'shrink'
'sac'
'retirement_'
'proportion_'
'prevent'
'plant_'
'pain_'
'nl'
'lasting_'
'immi'
'ffi'
'cultur'
'compensation_'
'birth_'
'alternatives_'
'als_'
'acle_'
'Sh'
'Mal'
'IS'
'Fr'
'1989_'
'use'
'ub'
'thou'
'supposedly_'
'spread'
'responses_'
'raises_'
'pursued_'
'oa'
'ness'
'measured_'
'istic_'
'intensi'
'imperative_'
'hero'
'era'
'dream_'
'disma'
'deser'
'courts_'
'car_'
'black_'
'assur'
'advocate'
'Unlike_'
'Peace_'
'Mad'
'wre'
'tw'
'tel'
'surge_'
'similarly_'
'replac'
'ratif'
'provision_'
'peak_'
'observ'
'neglect'
'loom'
'liat'
'kinds_'
'je'
'helps_'
'guard'
'displaced_'
'debates_'
'connect'
'complicated_'
'Vic'
'Lib'
'Kenya_'
'HI'
'Free_'
'Brotherhood_'
'Ala'
'upp'
'ultimate_'
'shares_'
'sat'
'methods_'
'los'
'kan_'
'grant_'
'except_'
'dio'
'damaging_'
'connection'
'chemical_'
'block_'
'attracti'
'Sp'
'Rights_'
'Dea'
'Ali'
'1930_'
'tradition_'
'stimulate_'
'seas'
'ressi'
'responsibilities_'
'purchasing_'
'pos'
'ling'
'ive'
'exh'
'entit'
'ech'
'eastern_'
'destin'
'defeat'
'declar'
'dece'
'cross'
'consider'
'cien'
'bin_'
'apa'
'aftermath_'
'Saddam_'
'wn'
'waste_'
'revers'
'restrain'
'rac'
'quit'
'nding_'
'multiple_'
'melt'
'gent'
'fulfill'
'emo'
'downturn_'
'dau'
'complet'
'cker'
'chari'
'ball_'
'advice_'
'Val'
'Pol'
'Modi_'
'L_'
'Es'
'Bre'
'where'
'tee'
'streets_'
'sport'
'pun'
'ome'
'mater'
'lia'
'legal'
'initiate'
'fire'
'ees_'
'ease_'
'draw_'
'discipline_'
'consume'
'commen'
'broadly_'
'bb'
'are'
'application'
'appli'
'accommodat'
'Sudan_'
'Bangladesh_'
'…'
'x'
'vey'
'umb'
'uli'
'tons_'
'toll'
'tech_'
'stal'
'simpl'
'showing_'
'question'
'proven_'
'original_'
'mpe'
'inte'
'if'
'hange'
'falls_'
'ec'
'desp'
'cit'
'cars_'
'arrive'
'affi'
'ae'
'adviser'
'accurate'
'Tri'
'PA'
'Institute_'
'Cur'
'20'
'zon'
'worried_'
'voice_'
'ule'
'trials_'
'transform_'
'suspect'
'safe'
'nya'
'nia_'
'memor'
'loyal'
'liberali'
'lever'
'impe'
'ili'
'gets_'
'generating_'
'exclude'
'empt'
'emphasize'
'dition'
'distinguish'
'bigger_'
'atmosphere_'
'Hungary_'
'Del'
'Church'
'CO'
'192'
'urs'
'ulati'
'ttle'
'touris'
'techni'
'tas'
'station_'
'selling_'
'runs_'
'revolution'
'reliable_'
'kh'
'iri'
'indicate'
'grave'
'explor'
'ethical_'
'discrimination_'
'dealing_'
'capture_'
'burden'
'breakthrough'
'authori'
'attr'
'aside_'
'aris'
'ano'
'adjusted_'
'Prote'
'Mich'
'ES'
'Cuba_'
'Change_'
'Ch'
'tics_'
'strengthened_'
'sens'
'root_'
'nur'
'navi'
'fic'
'fashion'
'fails_'
'ency_'
'dispar'
'component_'
'chaos_'
'bank'
'alleged'
'Conf'
'uma'
'turns_'
'triggered_'
'thanks_'
'state'
'stand'
'restor'
'rational_'
'properly_'
'proce'
'owners_'
'ous'
'oral_'
'ising_'
'iled_'
'guide_'
'fy_'
'film'
'facilitate_'
'disruption'
'diminish'
'consistently_'
'coa'
'brings_'
'abandon_'
'Dar'
'Cou'
'Cas'
'Bri'
'travel_'
'succeeded_'
'shut'
'secu'
'rela'
'pure'
'populism_'
'phi'
'participate_'
'origin'
'minorities_'
'mic'
'liz'
'lib'
'ila'
'function'
'dimension'
'consequence_'
'confrontation_'
'brutal_'
'bias'
'ancing_'
'Thi'
'The'
'Hun'
'Angela_'
'00_'
'winning_'
'wee'
'staff_'
'rio'
'prox'
'presidents_'
'overwhelming_'
'nting_'
'new'
'neg'
'mobility_'
'mer_'
'lived_'
'kill'
'impede'
'fol'
'expenditures_'
'drawn_'
'dr'
'diversif'
'defini'
'comprise'
'classic'
'carefully_'
'aims_'
'accident'
'Dutch_'
'Ara'
'ulate'
'trac'
'stocks_'
'representatives_'
'profitab'
'pack'
'materials_'
'integrat'
'hunger_'
'hop'
'fragment'
'foundation_'
'extremists_'
'ear'
'discon'
'depreciation_'
'debtor'
'cted_'
'creat'
'colleagues_'
'beat'
'argues_'
'ang_'
'ality_'
'Wat'
'Bel'
'un_'
'treat_'
'sions_'
'separate_'
'secondary_'
'represented_'
'public'
'prudent'
'proper_'
'prefer_'
'preci'
'patterns_'
'overwhelm'
'overt'
'makers_'
'limiting_'
'kov'
'jun'
'ional'
'identified_'
'gun'
'gotten_'
'edly_'
'dozen'
'din'
'dependence_'
'cked_'
'boom'
'bomb'
'avo'
'Policy_'
'DE'
'CEO'
'1999_'
' , _'
'underpinn'
'subject'
'strikes_'
'send_'
'presum'
'phenomenon_'
'nter'
'nse'
'nist'
'inclusion_'
'equipment_'
'endorse'
'craft_'
'considerably_'
'compl'
'cease'
'by'
'aware_'
'appeared_'
'adjust'
'abuse_'
'ST'
'MI'
'undermined_'
'thriv'
'strong'
'somewhat_'
'solv'
'rna'
'rip'
'request'
'prosperous_'
'manner_'
'len_'
'invi'
'gues'
'ggi'
'concrete_'
'benefited_'
'apparently_'
'Part'
'Par'
'Justice_'
'Bill_'
'unk'
'trigger_'
'toc'
'stagna'
'smo'
'shr'
'read'
'rai'
'prompt'
'omi'
'moderat'
'lde'
'invested_'
'index_'
'ign'
'forcing_'
'flat'
'famous_'
'dura'
'deba'
'clin'
'High_'
'FA'
'vice_'
'throw'
'suggesti'
'statements_'
'rock'
'policymaking_'
'perfect_'
'medic'
'ith'
'instan'
'inability_'
'governing_'
'evolve'
'equit'
'dispos'
'devote'
'describe'
'coverage_'
'automatic'
'Robert_'
'LI'
'Inde'
'Agency_'
'Abd'
'unce'
'tract'
'tool_'
'tche'
'sche'
'resent'
'requi'
'outright_'
'notion_'
'monopoly_'
'meters_'
'ise'
'indic'
'host'
'gly_'
'fortun'
'characterized_'
'challenging_'
'bia'
'ay_'
'ant'
'anniversary_'
'Speci'
'Pet'
'Harvard_'
'HO'
'EN'
'Any_'
'Abbas_'
'sophisticated_'
'sexual_'
'reliance_'
'regarding_'
'phone_'
'pe_'
'nas'
'loa'
'justify_'
'initially_'
'identi'
'greatly_'
'gaining_'
'enjoy_'
'eni'
'ecti'
'drag'
'concept'
'boy'
'bin'
'architect'
'Q'
'Hen'
'Green'
'speciali'
'remin'
'referen'
'recover_'
'ray'
'petr'
'overl'
'maintained_'
'indicati'
'focusing_'
'faction'
'error'
'distr'
'directed_'
'design'
'consult'
'confus'
'amp_'
'accelerate_'
'Sun'
'She'
'Sec'
'Bet'
'Agreement_'
'2017_'
'1980s_'
'wonder_'
'usly_'
'tted_'
'transformed_'
'tch_'
'resign'
'rej'
'personal'
'negotiated_'
'mix'
'minds_'
'meaningful_'
'may'
'log'
'ight_'
'ideal'
'friend'
'fort'
'foresee'
'environment'
'enthusias'
'enemies_'
'emic'
'ecosystem'
'deposit'
'delay'
'convict'
'conse'
'collapsed_'
'bridge'
'author'
'assumed_'
'and'
'She_'
'Pan'
'PARIS_'
'Moscow_'
'Mediterranean_'
'Let_'
'Cai'
'Abo'
'75_'
'written_'
'tati'
'shop'
'rim'
'repression_'
'power'
'plenty_'
'perm'
'origina'
'lera'
'interna'
'excess'
'eco'
'domin'
'deposits_'
'cells_'
'alan'
'advantages_'
'ado'
'Shin'
'Morsi_'
'Im'
'Gene'
'Berlin_'
'uin'
'theo'
'surveillance_'
'spirit_'
'spill'
'ry'
'routine'
'retr'
'remark'
'privilege'
'prison_'
'preference'
'platform_'
'phe'
'overha'
'opi'
'occupied_'
'north_'
'nents_'
'loan_'
'ler_'
'insiste'
'impressive_'
'iction'
'extraordinary_'
'evaluat'
'drive'
'diplomat'
'coe'
'adapt_'
'Stan'
'Moham'
'Conse'
'unconventional_'
'ssa'
'spect'
'socialis'
'responded_'
'rce'
'rating_'
'optimis'
'nted_'
'mination_'
'j'
'icat'
'hap'
'dual'
'dable_'
'bac'
'Tur'
'Tra'
'Red'
'swe'
'repo'
'remov'
'rei'
'reh'
'plu'
'pec'
'neighboring_'
'lf'
'improvements_'
'hink'
'heard_'
'fill'
'fil'
'execut'
'entrepreneurs_'
'ends_'
'endan'
'ect'
'ean_'
'drought'
'doctors_'
'construct'
'connected_'
'communism_'
'cin'
'chains_'
'believes_'
'ase'
'apart_'
'Sur'
'Copenhagen_'
'Brussels_'
'zer'
'wish_'
'uran'
'twi'
'tiz'
'tist'
'thea'
'spot'
'slightly_'
'sight_'
'secret'
'scheme_'
'rity_'
'rebuild'
'perception_'
'pati'
'moves_'
'ministr'
'manipulat'
'late'
'graduate'
'donors_'
'display'
'dd'
'contin'
'None_'
'Libera'
'Leader'
'ISIS_'
'Big_'
'21_'
'vici'
'suddenly_'
'rooted_'
'resilience_'
'proc'
'presented_'
'porti'
'planned_'
'overc'
'och'
'obe'
'nz'
'list'
'legislat'
'island_'
'insur'
'ignored_'
'frequen'
'female_'
'eradicat'
'emphasis_'
'dor'
'distribute'
'detail'
'commit_'
'cast_'
'ber_'
'Political_'
'Ci'
'BRICS_'
'Ann'
'zy'
'workforce_'
'suppl'
'struggle'
'scandal'
'rightly_'
'repay'
'rent'
'recall'
'preserve_'
'operation_'
'officer'
'odd'
'met'
'kill_'
'ice_'
'fla'
'financi'
'even'
'ev'
'ef_'
'divi'
'dera'
'content_'
'consci'
'confe'
'chnolog'
'bab'
'art'
'arian'
'ad_'
'You'
'Oc'
'City_'
'CI'
'Burma_'
'Bud'
'Among_'
'28_'
'191'
'worri'
'warn'
'unemployed_'
'til'
'tail'
'sum_'
'red'
'rail'
'qi'
'partnerships_'
'oppose_'
'lab'
'infl'
'inca'
'ext'
'entrepreneur'
'enforcement_'
'ducti'
'creative_'
'compos'
'commenta'
'Reagan_'
'Malaysia_'
'Kurdish_'
'Gam'
'Fac'
'Every_'
'English_'
'19_'
'waters'
'violation'
'vide'
'train'
'ths_'
'threatens_'
'symptom'
'shifts_'
'secret_'
'realistic_'
'opti'
'noted_'
'mal_'
'macro'
'judg'
'involvement_'
'insist_'
'fie'
'extend'
'experiencing_'
'eful'
'deliberate'
'cite'
'backing_'
'ave'
'administ'
'True_'
'Through'
'Fai'
'BE'
'wed_'
'vehicles_'
'unh'
'translate'
'terr'
'shel'
'scholar'
'sad'
'ruct'
'robot'
'province'
'predict'
'polar_'
'indis'
'fti'
'extrem'
'ern_'
'effic'
'dem'
'deepen'
'contract_'
'combat_'
'char'
'chain_'
'caught_'
'answer'
'Who_'
'Power'
'ya_'
'vate_'
'unfor'
'tighte'
'sound'
'sim'
'sca'
'rush'
'remember_'
'poorer_'
'outbreak'
'obstacles_'
'notice'
'minded_'
'meetings_'
'maximiz'
'master'
'mandat'
'mac'
'lor'
'itiv'
'ital'
'ict'
'hy_'
'fueling_'
'enhancing_'
'conta'
'barr'
'anticipate'
'IA'
'Goals_'
'Forum_'
'Exc'
'Austria'
'27_'
'yal'
'whe'
'ulator'
'stick'
'skilled_'
'rene'
'renc'
'regain'
'provisions_'
'propo'
'promote'
'preserv'
'ntle'
'nian'
'murder'
'ms'
'map_'
'justifi'
'ined_'
'ik'
'hro'
'honest'
'hom'
'hold'
'hai'
'governor'
'formi'
'fli'
'deni'
'ches'
'attac'
'atives_'
'agency_'
'You_'
'Mak'
'supr'
'retain_'
'resp'
'quick_'
'prete'
'pressing_'
'pois'
'mobiliz'
'manipulation_'
'law'
'hosti'
'gulat'
'gre'
'frau'
'entered_'
'didn_'
'collect'
'cast'
'Zh'
'Southeast_'
'Kr'
'ET'
'Cro'
'zon_'
'zen'
'vel'
'usive'
'ters_'
'survey_'
'spo'
'roots_'
'predicted_'
'persistent_'
'offens'
'lobby'
'ky'
'ivity_'
'ite_'
'infection'
'illness'
'iar'
'heart'
'happy_'
'geri'
'exclu'
'difficulties_'
'determination_'
'deg'
'defe'
'convert'
'conclu'
'clou'
'attempting_'
'artificial'
'Rel'
'Czech'
'surviv'
'sun'
'sensible_'
'resort_'
'resist_'
'reinforc'
'protected_'
'privatiz'
'prio'
'ourselves_'
'ordina'
'operat'
'ocati'
'mega'
'match_'
'kilo'
'investigation'
'imposing_'
'headline'
'feel'
'erode'
'disi'
'counterp'
'civilization'
'care'
'blind'
'astr'
'advis'
'Tim'
'FD'
'Cong'
'Ap'
'23_'
')'
'yed_'
'urgently_'
'unleash'
'tude_'
'success'
'store'
'slower_'
'shak'
'rov'
'rod'
'reminde'
'rav'
'outsi'
'mortgages_'
'monitor'
'links_'
'lant'
'involving_'
'involve_'
'implicit'
'ient'
'humiliat'
'fundamentalis'
'elect'
'crack'
'calculation'
'albeit_'
'agr'
'affl'
'ador_'
'adhere'
'activists_'
'acknowledge'
'abuse'
'Nuclear_'
'Nei'
'Mas'
'CD'
'?'
'vaccines_'
'v'
'think'
'tera'
'talent_'
'tale'
'straight'
'stan_'
'sec'
'scien'
'sacrifice'
'print'
'prepare_'
'penal'
'pe'
'liabilities_'
'lay'
'inha'
'informal_'
'influential_'
'indicators_'
'guided_'
'far'
'false_'
'expression_'
'equa'
'condition'
'compr'
'compelling_'
'broken_'
'att'
'ators_'
'asylum_'
'Ts'
'Sustainable_'
'Should_'
'Qaddafi_'
'Mala'
'Kor'
'And'
' &'
'yen_'
'yan_'
'ward'
'trat'
'supplie'
'spur_'
'spon'
'sia'
'sex_'
'prolonged_'
'plac'
'picture_'
'paraly'
'obviously_'
'isolation_'
'hip'
'general'
'employers_'
'dv'
'draft'
'dictatorship_'
'defens'
'courage'
'comparison'
'blo'
'beh'
'Hitler_'
'Front'
'Er'
'Conference_'
'Clearly_'
'Afghan_'
'walk'
'ur_'
'unb'
'skill_'
'severely_'
'rol'
'retre'
'reductions_'
'rare_'
'protectionism_'
'polariz'
'openly_'
'ni_'
'medicine_'
'manage'
'listen'
'kis'
'internationally_'
'interested_'
'got'
'explosi'
'ery_'
'ef'
'dea'
'contest'
'constituen'
'categor'
'belong'
'avoided_'
'achievement_'
'Op'
'Islamists_'
'Dan'
'17'
'uth'
'usa'
'tow'
'tal'
'statistics_'
'risen_'
'prope'
'portfolio'
'poorly_'
'pool'
'patient_'
'organi'
'neo_'
'nces_'
'militant'
'merc'
'intervene_'
'inefficient_'
'hee'
'flee'
'fare_'
'erat'
'enforc'
'colla'
'class'
'clash'
'careful_'
'association'
'Ve'
'Spe'
'Politic'
'Jos'
'Gr'
'Gh'
'Fo'
'EL'
'Cla'
'Chávez_'
'Before_'
'1998_'
'vert'
'tate'
'targeting_'
'spectac'
'social'
'seg'
'reformi'
'rast'
'modernization_'
'missing_'
'itu'
'insul'
'insight'
'inside_'
'indebted'
'guaranteed_'
'fs_'
'fit'
'fields_'
'expansion'
'evident_'
'distress'
'director'
'declaration'
'cycl'
'confident'
'broad'
'bre'
'brand'
'bon_'
'asy'
'Rich'
'Pres'
'Gold'
'Elect'
'Board_'
'Authority_'
'Au'
'zzl'
'vy'
'volatile_'
'visible_'
'ung'
'understand'
'thes'
'tackle_'
'some'
'sil'
'rog'
'reluctant_'
'rational'
'port_'
'orous'
'ogen'
'nea'
'nda'
'mines_'
'ivi'
'insufficient_'
'inherit'
'ilar'
'hate'
'examine'
'earn_'
'draw'
'dangers_'
'convers'
'cide'
'child'
'breaking_'
'approved_'
'ands_'
'amend'
'alo'
'aliti'
'Three_'
'Stability_'
'Keynesian_'
'vani'
'tragedy_'
'substan'
'rying_'
'roll_'
'removed_'
'recruit'
'quali'
'prominent_'
'pharmaceutical_'
'parallel'
'onal'
'oe'
'modif'
'market'
'location'
'issu'
'importe'
'ialis'
'hs_'
'holder'
'heat'
'gua'
'features_'
'extremism_'
'ever'
'enemy_'
'ement'
'dominance_'
'catastrophe_'
'assi'
'antage'
'advocates_'
'adi'
'acknowledge_'
'accused_'
'Public_'
'Francis'
'); _'
'ych'
'voca'
'unwi'
'ually_'
'tig'
'suspen'
'successi'
'semi'
'residents_'
'nning_'
'ml'
'minim'
'ira'
'importantly_'
'imply_'
'histori'
'fulfill_'
'finances_'
'extra'
'existent'
'crash_'
'constrain'
'consist'
'concession'
'assumption_'
'aspir'
'ario'
'allocate'
'Ur'
'Saharan_'
'Citi'
'Catholic'
'wall_'
'slowing_'
'serving_'
'score'
'render'
'rb'
'ranging_'
'projected_'
'premi'
'pari'
'pain'
'openness_'
'onto_'
'militari'
'interpretation'
'impu'
'handle'
'fut'
'dropped_'
'dging_'
'device'
'desperat'
'demonstration'
'clean'
'binding_'
'band_'
'bacco_'
'amm'
'accumulati'
'accumulate'
'Ren'
'Polish_'
'Others_'
'Fatah_'
'DR'
'who'
'vid'
'underway_'
'ugu'
'superior'
'stead'
'sensitive_'
'riti'
'provok'
'pleas'
'oning_'
'ock_'
'neur'
'ndo'
'mounting_'
'mes_'
'mas'
'install'
'grand'
'destroyed_'
'coup'
'command'
'cke'
'assembl'
'ania'
'agon'
'Yel'
'Dev'
'Cons'
'Bashar_'
'2050_'
'unpre'
'sphere'
'shou'
'rh'
'rds_'
'oming_'
'ola'
'magni'
'itt'
'granted_'
'fasci'
'expenditure_'
'ept'
'cong'
'complement'
'cil'
'bic'
'ballo'
'arbitra'
'animals_'
'ange'
'Work'
'Tibet'
'Recent_'
'RE'
'Jerusalem_'
'Han'
'Convention_'
'Ber'
'uit'
'trem'
'stif'
'stabilize_'
'sis_'
'rous'
'reassur'
'psychologi'
'ose_'
'ntu'
'neighborhood'
'liab'
'inherent'
'indicate_'
'hir'
'gma'
'fertili'
'date'
'cure_'
'cial'
'bann'
'acceptable_'
'Ye'
'MD'
'Jinping_'
'Ebola_'
'Constitution_'
'Arabs_'
', '
'án'
'wast'
'voi'
'triumph'
'sus'
'smok'
'seats_'
'rot'
'rebalancing_'
'quent'
'pipeline'
'matur'
'lawyer'
'justified_'
'jan'
'interven'
'inex'
'ile'
'gr'
'exporters_'
'delay_'
'couple_'
'coordinated_'
'chu'
'capa'
'akin'
'agent'
'abandoned_'
'Scotland_'
'Medica'
'Hillary_'
'Gra'
'Global'
'Economist'
'Denmark_'
'Conservative'
'BI'
'Ass'
'65_'
'virus_'
'tial'
'struck_'
'sold_'
'ri_'
'populists_'
'pir'
'paradox'
'infa'
'incur'
'ibu'
'grid'
'forest'
'fill_'
'expos'
'exists_'
'discour'
'cut'
'cot'
'contraction'
'contemp'
'complic'
'antibiotic'
'Whe'
'V_'
'PRI'
'FO'
'Cris'
'Corporat'
'Chil'
'waiting_'
'voluntar'
'uphold'
'underp'
'ul_'
'tum'
'toleran'
'tlan'
'timi'
'therap'
'sudden_'
'sle'
'signal_'
'repeated_'
'release_'
'raw'
'performing_'
'penden'
'ot_'
'ney'
'mitigat'
'mise'
'migra'
'lur'
'lls_'
'ison'
'gradual_'
'feeling_'
'epidemic'
'dist'
'disse'
'define_'
'bloc'
'background_'
'article'
'arra'
'Research_'
'Labour_'
'Hollande_'
'Google_'
'Education_'
'Economi'
'Age'
'1991_'
'13'
'wou'
'ution'
'unsu'
'tolera'
'tiona'
'tightening_'
'thu'
'tag'
'symboli'
'sue'
'sky_'
'sets_'
'securi'
'requiring_'
'readin'
'reacti'
'provider'
'pou'
'participat'
'measur'
'mble'
'liv'
'ino'
'ining_'
'infla'
'impress'
'generous_'
'flaw'
'evolution_'
'erupted_'
'episode'
'electorate_'
'dule'
'distorti'
'disar'
'degrad'
'contributing_'
'constant_'
'compromis'
'cen'
'asking_'
'anger_'
'ana_'
'aff'
'Unless_'
'Stalin_'
'Def'
'Contr'
'202'
'% – _'
'wish'
'vulnerability_'
'veness_'
'upt'
'tradable_'
'tank'
'sponsor'
'scal'
'revisi'
'resolved_'
'reconcil'
'quiet'
'progr'
'persua'
'outlook_'
'ose'
'orth'
'nte'
'nst'
'normal'
'narrow'
'motivated_'
'mitigate_'
'mina'
'mbe'
'interfere'
'forth'
'fish_'
'esc'
'colo'
'civi'
'ay'
'Tru'
'Shanghai_'
'Reco'
'Musharraf_'
'Mexican_'
'Fried'
'Bur'
'Adv'
'violate'
'ven_'
'unin'
'undergo'
'uci'
'tif'
'specific'
'shale_'
'seeks_'
'rk'
'reversed_'
'reject_'
'print_'
'popul'
'pin'
'person'
'perform'
'nate'
'mutual'
'multinational'
'intra'
'incu'
'feed'
'expertise_'
'exceptional'
'controversial_'
'comparable_'
'buy'
'awareness_'
'aspirations_'
'anxiety_'
'analysts_'
'accession_'
'absolute_'
'WTO_'
'Sand'
'SE'
'Mont'
'Const'
'Ame'
'withstand'
'vag'
'vaccine_'
'unexpected'
'unan'
'topp'
'tional_'
'seve'
'priva'
'prescri'
'nou'
'mix_'
'manifest'
'luck'
'looked_'
'incl'
'gers_'
'extract'
'emb'
'door_'
'competitor'
'cell_'
'capitalist'
'affordable_'
'Wal'
'Uni'
'Strateg'
'Sto'
'SDR'
'RA'
'Not'
'Eve'
'Each_'
'Democracy_'
'BA'
'201'
'1979_'
'unus'
'ubl'
'trap_'
'testing_'
'tens_'
'stood_'
'stall'
'ss'
'shape'
'ructure_'
'resembl'
'pse'
'prevented_'
'practic'
'pecti'
'numerous_'
'ntr'
'mature_'
'mant'
'lion'
'lay_'
'itim'
'institut'
'imm'
'hm'
'geta'
'foster_'
'fine_'
'explained_'
'enting_'
'enlarge'
'embr'
'deal'
'constrained_'
'competing_'
'communication_'
'centri'
'assess_'
'anywhere_'
'abilit'
'Ven'
'Army_'
'unacc'
'supervis'
'spring_'
'sooner_'
'solved_'
'shadow_'
'rum_'
'redistributi'
'rad'
'proclaim'
'lau'
'itati'
'imperial_'
'immense'
'gli'
'gle'
'fea'
'existence_'
'els'
'earth_'
'duce'
'disturb'
'disco'
'concentration'
'competen'
'compensate'
'code_'
'centrali'
'avoiding_'
'aching_'
'] _'
'Christ'
'vity_'
'torture'
'siste'
'serve'
'remote'
'prediction'
'osev'
'opin'
'nies_'
'monitoring_'
'lenders_'
'hypo'
'haven'
'harmon'
'hani_'
'formed_'
'foreigners_'
'eager_'
'distincti'
'devaluation_'
'destructive_'
'denominat'
'consen'
'complexit'
'bbi'
'base'
'arguing_'
'Ky'
'Initia'
'Government_'
'zh'
'xin'
'write'
'vita'
'veto'
'vary'
'va_'
'unrest'
'uis'
'tio'
'tight'
'technocrat'
'regist'
'pursuit_'
'professor'
'professional'
'preced'
'politician_'
'plays_'
'platforms_'
'pessimis'
'peoples_'
'otion'
'oppos'
'lend_'
'lear'
'laun'
'ket'
'ior'
'inac'
'hte'
'harsh'
'ener'
'empire_'
'duc'
'desperate_'
'deci'
'collaborat'
'boost'
'blue'
'autonomy_'
'assert'
'Serbia_'
'Olympic'
'OS'
'IB'
'Foo'
'Camb'
'whi'
'valid'
'unification_'
'tant'
'sequen'
'send'
'saved_'
'resu'
'procedures_'
'postpone'
'play'
'plane'
'payment_'
'ought_'
'ological'
'ile_'
'identif'
'gna'
'fifth_'
'favorable_'
'envi'
'embrace'
'ecut'
'curs'
'coheren'
'chances_'
'campaigns_'
'behavi'
'actively_'
'Romney_'
'New'
'NGO'
'Ethiopia'
'Don'
'Cyprus_'
'Business'
'Algeria'
'valued_'
'unl'
'tsunami'
'tle_'
'term'
'reporte'
'ran_'
'qual'
'provi'
'problematic_'
'prin'
'ports_'
'pillar'
'persuade_'
'mmer'
'kha'
'ie_'
'halt_'
'foundations_'
'fat_'
'ethic'
'esca'
'dysfunction'
'decid'
'convergence_'
'concentrated_'
'bol'
'attribute'
'alance_'
'adjust_'
'aca'
'Reform'
'Out'
'Finance_'
'Berlusconi_'
' ('
'si_'
'sectarian_'
'rma'
'richer_'
'reconciliation_'
'precedent'
'poses_'
'periods_'
'normaliz'
'mem'
'jor'
'inflict'
'iev'
'icon'
'gian'
'executives_'
'dub'
'dos'
'division_'
'digit'
'differ'
'dge_'
'devis'
'ctive'
'count_'
'consolidate'
'compound'
'claiming_'
'chose_'
'characteristic'
'cent_'
'brief'
'bound'
'battle'
'balances_'
'alien'
'USS'
'TO'
'PB'
'All'
'."_'
'!'
'swee'
'summ'
'statist'
'retail_'
'respectively_'
'rede'
'recon'
'rally'
'nominat'
'neutral'
'machines_'
'loser'
'link'
'kr'
'judicial_'
'judgment_'
'iate'
'hire'
'gement_'
'fun'
'friendly_'
'fresh_'
'feed_'
'fad'
'enhanced_'
'enforce_'
'embod'
'drea'
'disintegrat'
'discourage'
'dica'
'deteriorati'
'ddl'
'command_'
'choos'
'cheaper_'
'calculat'
'appl'
'announcement_'
'advanc'
'adoption_'
'Slo'
'Norway_'
'Khamenei_'
'ID_'
'Ed'
'DA'
'younge'
'warr'
'vul'
'vio'
'upward'
'upgrad'
'ting'
'supports_'
'stud'
'strea'
'stl'
'spurr'
'sity_'
'shall'
'retain'
'realized_'
'press'
'politi'
'passing_'
'otic_'
'nomi'
'metr'
'love_'
'lev'
'issi'
'isolat'
'iation_'
'hot'
'gnit'
'forecast_'
'feature_'
'facto_'
'elect_'
'doctrine_'
'diver'
'disproportionate'
'dan_'
'cting_'
'criteria_'
'compli'
'commodities_'
'brig'
'bian'
'adopting_'
'activis'
'ache'
'Ris'
'ON'
'LO'
'Ker'
'Ear'
'DNA_'
'Are_'
'60'
'%)'
'symbol'
'submi'
'sect'
'ricul'
'propose'
'prisoner'
'page'
'ou_'
'opt'
'oph'
'ope'
'mother_'
'moth'
'logy_'
'legislative_'
'itutional'
'item'
'ita'
'invol'
'interv'
'intense_'
'hedge'
'gross'
'flou'
'fellow_'
'enable'
'employed_'
'eliminate'
'ede'
'eav'
'downs'
'dominate_'
'divisions_'
'definition'
'curb'
'ctic'
'critic'
'committee_'
'colon'
'clari'
'bus'
'backlash_'
'attitudes_'
'arise_'
'anno'
'ancient_'
'agi'
'Where_'
'Kurds_'
'King_'
'Governor'
'Dem'
'Day'
'Cre'
'Bosnia'
'' _'
' –&'
'uld'
'uen'
'tern'
'tered_'
'rui'
'rop'
'resum'
'proteste'
'optimistic_'
'oner'
'oke'
'nct'
'murder_'
'mpi'
'kan'
'judges_'
'inta'
'hydro'
'hori'
'fundamentals_'
'fferen'
'feasib'
'cope_'
'contract'
'communica'
'common'
'cohesi'
'carrie'
'cance'
'bless'
'assault'
'accountable_'
'Za'
'NC'
'Jam'
'IR'
'Arti'
'?”_'
'zar'
'yes_'
'unit_'
'underestimate'
'uk'
'trick'
'toxic_'
'task'
'square'
'reputation_'
'reap'
'pt_'
'ote'
'orate'
'operati'
'onsibl'
'novel'
'multipl'
'minimize'
'kes_'
'ioni'
'indirect'
'incor'
'gat'
'fruit'
'fru'
'exposure_'
'discussed_'
'discuss_'
'depende'
'conve'
'conclude_'
'classes_'
'chem'
'channels_'
'blic'
'atory_'
'archi'
'achievements_'
'Macron_'
'Lat'
'Kyoto_'
'Inte'
'Air'
'Aff'
'underscore'
'tid'
'thl'
'solid_'
'refin'
'quest_'
'qu'
'puts_'
'put'
'premium'
'predictable_'
'pid'
'orte'
'nob'
'nity_'
'miles'
'mam'
'maint'
'lligen'
'lated_'
'ki_'
'jihadis'
'intensify'
'inst'
'inflationary_'
'heri'
'generat'
'gate'
'familiar_'
'elt'
'dg'
'ddi'
'credit'
'cem'
'bombing'
'bing'
'behave'
'Real'
'Group_'
'Facebook_'
'Cri'
'Bh'
'Bernanke_'
'Base'
'26_'
'wave'
'voice'
'upr'
'uph'
'unwilling_'
'ture'
'tori'
'theori'
'tabl'
'stark'
'scene'
'relati'
'precis'
'pensions_'
'orc'
'ompa'
'moti'
'merge'
'memory_'
'listic_'
'liberat'
'lend'
'inspired_'
'ils_'
'hour_'
'hoped_'
'giant_'
'get'
'edit'
'doc'
'disasters_'
'decrease'
'convince_'
'carr'
'cabinet_'
'blow'
'bir'
'beneficial_'
'begins_'
'aggr'
'Nazi_'
'Mit'
'Earth_'
'Deng_'
'Crime'
'Chairman_'
'Aust'
'Ahmadinejad_'
'400_'
'ç'
'wl'
'utili'
'unfair_'
'ultra'
'tension_'
'student_'
'squ'
'sibilit'
'roo'
'rigi'
'reforme'
'protectionist'
'propaganda_'
'principal_'
'pricing_'
'preferr'
'portray'
'oge'
'occurr'
'lowest_'
'ket_'
'iste'
'interaction'
'instrument'
'ineffective'
'impos'
'iling_'
'hesi'
'grand_'
'fre'
'engine_'
'electron'
'ean'
'disti'
'default'
'dark_'
'cour'
'computers_'
'come'
'chas'
'born'
'alliances_'
'Sing'
'Nicol'
'Hai'
'Fisc'
'Cooperation_'
'Arme'
'with'
'weapon_'
'uta'
'upcoming_'
'uctive_'
'sustain'
'shortfall'
'sd'
'scarce'
'run'
'ric_'
'ratios_'
'purposes_'
'proposi'
'overlook'
'opoli'
'ocra'
'mut'
'marriage_'
'livelihood'
'lighten'
'lem'
'ivat'
'introduce_'
'interpret'
'inno'
'inati'
'ilab'
'ibi'
'hub'
'hit'
'hazard'
'gos'
'gic'
'fran'
'ffer'
'extensive_'
'enal'
'details_'
'deliveri'
'conduc'
'catch_'
'assist'
'alongside_'
'advertis'
'admir'
'accept'
'Road'
'Representative'
'Having_'
'Force'
'Direct'
'Bla'
'Bl'
'1970s_'
' – “_'
'xide_'
'won'
'unne'
'tte'
'trave'
'threshold'
'tariffs_'
'subsidiz'
'street_'
'ssing_'
'sly_'
'scen'
'rth'
'retire'
'renewa'
'remed'
'recognizing_'
'misse'
'lien'
'jeopardiz'
'intellect'
'insula_'
'inject'
'hea'
'grant'
'gm'
'genom'
'genocide_'
'famously_'
'eye_'
'ex_'
'entrench'
'ense'
'emotional'
'donor_'
'distance'
'difficulty_'
'deem'
'cooperative'
'coll'
'burg'
'ante'
'abundan'
'Syri'
'Sr'
'Somet'
'SOE'
'Polic'
'Nixon_'
'Nex'
'NCE'
'Foundation'
'Charl'
'Center_'
'Back_'
'”_'
'uss'
'urbaniz'
'uction'
'ton'
'terribl'
'tactic'
'sufficiently_'
'sque'
'spiral'
'sigh'
'residen'
'rees_'
'rect'
'perpetu'
'overthr'
'nis_'
'nder_'
'nab'
'isl'
'invite'
'hra'
'hot_'
'globaliz'
'fought_'
'follower'
'flight_'
'flawed_'
'fired_'
'fficien'
'explains_'
'escalati'
'eliminating_'
'earned_'
'contemporary_'
'college'
'calm'
'bud'
'blame'
'abor'
'Wit'
'Thatcher'
'Stu'
'Sever'
'Qatar_'
'Mao_'
'Mana'
'Lis'
'Jac'
'Capital'
'Against_'
'AT'
'à_'
'wart'
'trag'
'suspicion'
'stakeholder'
'rtain'
'riches'
'resolv'
'reinforced_'
'regular_'
'rable_'
'prior_'
'pride'
'pound'
'nism'
'mortality_'
'minate'
'likelihood_'
'lateral'
'labor'
'ior_'
'interdependen'
'ign_'
'human'
'guer'
'grade'
'gang'
'formation'
'entry_'
'engag'
'dynamics_'
'dred_'
'distant_'
'disor'
'disastrous_'
'dictators'
'delivery_'
'deflat'
'deepening_'
'creditor_'
'corner'
'congressional_'
'colonial_'
'capture'
'cape'
'attacke'
'arrangement_'
'affect'
'acute_'
'Women_'
'Times_'
'Ron'
'Pra'
'Eco'
'Chen'
'Brother'
'Belg'
' [_'
' .'
'yc'
'western_'
'warm'
'volume_'
'venture'
'valen'
'unw'
'unstable_'
'transition'
'split'
'software_'
'sme'
'seat'
'scru'
'revive_'
'reinv'
'reinforce_'
'refus'
'realities_'
'ranks_'
'quat'
'peg'
'parl'
'nut'
'mmetr'
'mill'
'mad_'
'keep'
'ius'
'ienc'
'hr'
'houses_'
'genes_'
'frustration'
'freel'
'fit_'
'exceed_'
'ere'
'equilibrium_'
'ene'
'enacted_'
'dit_'
'dal'
'considerations_'
'conceiv'
'commu'
'commerc'
'circle_'
'cipal'
'cessa'
'bomb_'
'arro'
'appear'
'ains_'
'advers'
'Vie'
'TV'
'Switzerland_'
'Pat'
'BERKELEY_'
'Ah'
'1950_'
'uring'
'umn'
'typical_'
'tty_'
'town_'
'topi'
'tone_'
'tend'
'tactics_'
'surrounding'
'stop'
'situation'
'sina'
'shortc'
'sentence'
'repeat'
'psycho'
'peer'
'own'
'observed_'
'nsu'
'nai'
'mali'
'logist'
'integrity_'
'inequ'
'hier'
'ha_'
'fractio'
'element_'
'earthquake'
'dividend'
'dilemma_'
'dil'
'deleverag'
'crops_'
'criminal'
'cosm'
'chs_'
'ccess'
'bureaucracy_'
'borrow'
'attempted_'
'attain'
'amount'
'admitt'
'Tho'
'Supp'
'Ope'
'Industrial'
'IP'
'Ham'
'Five_'
'Euro_'
'80'
'1995_'
'zes_'
'weaknesses_'
'visi'
'vious'
'versus_'
'vas'
'unfo'
'umin'
'tripl'
'systematic'
'stress'
'sso'
'somehow_'
'significance_'
'sand_'
'rust'
'rted_'
'route_'
'remove_'
'ranking'
'qualifie'
'produces_'
'plung'
'plummet'
'ocation'
'mono'
'missiles_'
'lized_'
'liquid'
'laterali'
'isolated_'
'iew_'
'here'
'equip'
'enl'
'electric_'
'edge_'
'eci'
'dn'
'div'
'detect'
'broaden'
'bench'
'barrel'
'apol'
'anch'
'TON_'
'Pers'
'Kenne'
'Has'
'EM'
'Boliv'
'victim'
'unte'
'univers'
'uncom'
'uel_'
'traditionally_'
'titution'
'telling_'
'substitute'
'striking_'
'stimul'
'slowed_'
'restoring_'
'refuse_'
'recogniz'
'popularity_'
'plurali'
'pio'
'parent'
'nonetheless_'
'neighbor'
'mood'
'llin'
'letter'
'lete_'
'iv'
'itio'
'irrelevan'
'investigat'
'interm'
'innocen'
'historian'
'ground'
'founded_'
'esting_'
'elli'
'ega'
'een_'
'dignity_'
'delegat'
'considering_'
'combat'
'cks'
'cio'
'charg'
'busi'
'bbl'
'automa'
'appa'
'analog'
'ald_'
'affecting_'
'Worse_'
'Whatever_'
'WW'
'Terr'
'Office'
'Mis'
'Island'
'Indians_'
'Cat'
'Bor'
';&_'
'25'
'xo'
'vation_'
'ural_'
'understandable_'
'umen'
'uati'
'territories_'
'stru'
'ships_'
'sak'
'rent_'
'reduces_'
'rated_'
'ract'
'profil'
'plus_'
'pand'
'ool'
'ois_'
'nent_'
'mobilize_'
'miz'
'mism'
'mind'
'method'
'judge_'
'joining_'
'inter_'
'insecurit'
'input'
'incident'
'imo'
'ika'
'hus'
'hin_'
'gne'
'dom_'
'diverge'
'deterren'
'destroy'
'deny_'
'demanded_'
'cult'
'crop'
'convinc'
'confronting_'
'censor'
'averag'
'autocrat'
'account'
'accelerating_'
'VE'
'Morocc'
'Mod'
'Law_'
'Jong_'
'Invest'
'ING'
'Hussein'
'Dia'
'Act'
'AN'
'writing_'
'wellbeing_'
'unrea'
'tual_'
'treaties_'
'transportation_'
'ti_'
'swap'
'smar'
'shifted_'
'scra'
'risk'
'revol'
'relying_'
'rejection_'
'regularly_'
'publi'
'proud'
'protecti'
'plausib'
'patri'
'militia'
'mie'
'marginal_'
'juri'
'interco'
'informed_'
'influence'
'heli'
'heat_'
'grati'
'flow'
'favori'
'ender'
'ditions_'
'dering_'
'depriv'
'denied_'
'coordinat'
'confine'
'combine'
'collaboration_'
'chosen_'
'challenged_'
'bid_'
'accepta'
'Tak'
'Summit_'
'Gate'
'FTA_'
'Every'
'Cy'
'Char'
'1945_'
'150_'
'!_'
'yang_'
'welcom'
'vere'
'uted_'
'turb'
'trip_'
'surface'
'suicide_'
'strange'
'steadily_'
'stakes_'
'socio'
'sive'
'signat'
'repro'
'representative_'
'repli'
'repair'
'ral'
'phones_'
'outrage'
'ories_'
'onist'
'odu'
'note_'
'nical'
'muni'
'mone'
'marginaliz'
'male_'
'lov'
'lip'
'kid'
'iting_'
'ish'
'irresp'
'impedi'
'iali'
'hyper'
'hri'
'happiness_'
'geographic'
'forgi'
'forests_'
'exercis'
'erra'
'eles'
'driver_'
'downsi'
'dow'
'discovered_'
'deriv'
'curtai'
'cooperate_'
'client'
'cher'
'career_'
'burst'
'beral'
'believ'
'accelerate'
'Wh'
'Web'
'Ul'
'Trans_'
'Rwanda'
'Program'
'Millennium_'
'Jean_'
'Bas'
'BER'
'Associat'
':_'
'ón'
'zil'
'yma'
'wood'
'west'
'uo'
'unilateral_'
'trained_'
'tia'
'talking_'
'surprise'
'stone'
'selection_'
'screen'
'sani'
'river'
'reconstruct'
'reco'
'quota'
'probab'
'prim'
'positi'
'parad'
'overseas_'
'opp'
'nis'
'ners'
'ndu'
'mps'
'motive'
'motivati'
'mes'
'massa'
'mass'
'loo'
'jump'
'investor_'
'instr'
'insolven'
'incre'
'ident'
'gt'
'gaps_'
'formal'
'expla'
'evil_'
'eous'
'enterprise_'
'elder'
'eed'
'disrupti'
'disrupt'
'dise'
'deserve_'
'derive'
'depr'
'dama'
'coun'
'contribut'
'contagio'
'commi'
'catastrophic'
'capitaliz'
'blow_'
'audience'
'arl'
'andi'
'amid'
'allocation_'
'admit'
'Year_'
'Y_'
'Wolf'
'Ukrainian_'
'Twi'
'TB_'
'Somalia_'
'Sau'
'Northern_'
'IP_'
'Gü'
'Foll'
'FS'
'Drag'
'Ben_'
'volu'
'vet'
'varie'
'utter'
'supervision_'
'sely'
'refusal_'
'recess'
'recap'
'rank'
'quantit'
'project'
'prese'
'plag'
'ped'
'panic_'
'nia'
'moderniz'
'minute'
'indig'
'incit'
'imb'
'iently_'
'hurt_'
'hoo'
'hers'
'gher_'
'gel'
'foremost_'
'flag'
'fication_'
'experiences_'
'eur'
'ern'
'embe'
'eld_'
'diminishe'
'desirable_'
'declin'
'cture'
'compel'
'collate'
'cia'
'chen'
'ceiling'
'bass'
'backs_'
'avert'
'asc'
'adding_'
'Wel'
'Ten'
'Park'
'Over'
'OC_'
'Leh'
'Christian'
'Admi'
'yd'
'urnin'
'unm'
'ucat'
'timat'
'thor'
'tendency_'
'teachers_'
'sympath'
'sup'
'shortages_'
'scheme'
'rev'
'representati'
'prevention_'
'pragmatic_'
'phras'
'performe'
'oppress'
'nos'
'ngt'
'naturally_'
'nativ'
'machine_'
'laureate_'
'judicia'
'introduction'
'hostile'
'gible_'
'follows_'
'foc'
'fled'
'fix_'
'fighter'
'equ'
'epta'
'emphasized_'
'eei'
'eat_'
'earn'
'dynami'
'disorder_'
'constructive_'
'compo'
'clinical'
'cip'
'cataly'
'cabl'
'bitte'
'attitud'
'assas'
'arg'
'appointed_'
'animal_'
'ance'
'administrative'
'Xia'
'Woods_'
'Science'
'School'
'SDGs_'
'Nu'
'MO'
'Lon'
'Labor'
'Greenspan_'
'Deb'
'Com'
'Bretton_'
'Appl'
'Alliance_'
'1992_'
'‘'
'—'
'\'
'q'
'á'
'+'
'"'
'¥'
'e'
'–'
'&'
'$'
'’'
'ñ'
':'
'ö'
'­'
'í'
'°'
'['
'�'
'-'
'ä'
'ü'
'º'
']'
'“'
'£'
'ú'
';'
'è'
'ï'
'ł'
'ń'
'ć'
'€'
'ó'
'ô'
'É'
'ã'
'/'
'š'
'•'
'ê'
'â'
'−'
'ğ'
'ş'
'Á'
'ž'
'‒'
'œ'
'ō'
'Ö'
'('
'č'
'ø'
'@'
'ę'
'´'
'‑'
'‎'
'˚'
'ū'
'ı'
'='
'™'
'₂'
'ε'
'Š'
'ą'
'î'
'å'
'Ü'
''
''
''
'*'
'''
'⁰'
'ē'
'ë'
'Ó'
'Î'
'机'
'市'
'城'
'危'
'ș'
'Ž'
'ż'
'ű'
'õ'
'Ã'
'±'
'`'
'％'
'≤'
'ứ'
'Χ'
'Φ'
'ȃ'
'ś'
'ő'
'İ'
'Č'
'ă'
'ð'
'æ'
'Ò'
'Í'
'Ç'
'Å'
'¼'
'	'
'à'
'>'
'<'
'#'
